<PAD>	0
<BOS>	0
<EOS>	0
<UNK>	0
,	-3.32252
...	-3.77795
'	-4.00132
"	-4.07529
▁'	-4.13551
▁"	-4.17087
▁	-4.50928
·	-4.53104
]	-4.7103
▁[	-4.74856
’	-4.80875
▁‘	-4.87255
에	-5.05559
명	-5.10789
”	-5.13076
▁“	-5.13859
▁코로나	-5.4998
도	-5.56769
의	-5.62955
▁1	-5.65918
서	-5.70328
19	-5.73942
▁3	-5.76631
는	-5.77589
로	-5.89487
은	-5.89757
한	-5.92362
대	-5.93274
▁2	-5.97062
)	-6.00323
년	-6.0161
-	-6.05082
일	-6.06086
?	-6.07909
..."	-6.12836
하는	-6.24382
"...	-6.27725
이	-6.2777
억	-6.30015
▁등	-6.31477
▁확진	-6.3155
만	-6.32636
종합	-6.40407
가	-6.42195
▁5	-6.45598
▁10	-6.48873
(	-6.49117
과	-6.50457
월	-6.53258
으로	-6.5432
코로나	-6.578
▁4	-6.57978
와	-6.64541
▁美	-6.66353
▁개최	-6.68064
▁중	-6.7333
▁트럼프	-6.73915
분기	-6.75463
▁것	-6.75947
국감	-6.76309
▁지원	-6.82847
▁첫	-6.85351
▁확진자	-6.86139
▁전	-6.89899
`	-6.93385
▁출시	-6.93432
▁사망	-6.93478
▁6	-7.00357
▁국감	-7.01698
억원	-7.01737
▁대통령	-7.02533
▁회장	-7.0481
▁추가	-7.05175
▁서울	-7.05597
▁`	-7.0639
조	-7.06951
을	-7.07287
▁백신	-7.07766
만원	-7.08372
2	-7.08532
'...	-7.08556
▁만에	-7.08723
▁의원	-7.08935
주	-7.10785
에서	-7.10985
개	-7.11281
▁의혹	-7.17349
▁9	-7.17872
▁안	-7.18428
▁7	-7.19402
까지	-7.19995
▁추진	-7.20213
1	-7.20323
▁정부	-7.22574
▁20	-7.23102
▁후	-7.24177
▁부산	-7.24563
▁신규	-7.27345
▁최대	-7.28588
▁8	-7.28808
▁온라인	-7.29091
▁선정	-7.29291
차	-7.29969
속보	-7.30592
”...	-7.31095
위	-7.31716
···	-7.32407
▁한	-7.343
고	-7.3444
▁공무원	-7.35026
▁장관	-7.36239
▁또	-7.36784
▁LG	-7.36981
회	-7.37626
▁검찰	-7.38466
▁확대	-7.39057
▁접종	-7.39213
옵티머스	-7.39608
▁더	-7.39811
건	-7.39938
년간	-7.40949
▁감염	-7.41186
▁30	-7.42001
단독	-7.42213
▁11	-7.42215
▁논란	-7.42572
▁[2020	-7.43614
▁없어	-7.43978
▁운영	-7.4475
▁文	-7.45741
▁中	-7.46715
포토	-7.47142
3	-7.47287
▁대표	-7.47362
▁국민의힘	-7.47689
▁추미애	-7.48032
▁증가	-7.49989
곳	-7.50769
▁발생	-7.50779
...“	-7.51832
▁수	-7.51906
▁이낙연	-7.51976
▁화재	-7.53679
▁제	-7.5368
▁전국	-7.53848
▁관련	-7.54867
배	-7.54898
인	-7.55056
▁100	-7.55112
▁개발	-7.55384
▁윤석열	-7.56189
된	-7.56193
▁공개	-7.56921
▁진행	-7.58233
▁수사	-7.58498
▁검사	-7.58863
▁이건희	-7.59804
▁日	-7.5993
를	-7.60035
▁문	-7.60272
▁수상	-7.60514
▁투자	-7.60761
▁미국	-7.61006
▁강화	-7.61939
▁사업	-7.62408
▁위한	-7.62895
..	-7.62979
▁아파트	-7.63225
▁한국	-7.63824
▁vs	-7.64572
개월	-7.65419
▁마스크	-7.65522
대통령	-7.65694
▁與	-7.66065
트럼프	-7.66446
▁국내	-7.6654
▁北	-7.6733
▁중국	-7.6765
일부터	-7.67952
▁2020	-7.68082
만명	-7.68801
▁독감	-7.68833
▁이상	-7.68982
세	-7.69253
▁발표	-7.69355
▁12	-7.69811
?...	-7.7102
▁대상	-7.71123
선	-7.71211
▁50	-7.71635
▁미	-7.72096
던	-7.72831
▁재개	-7.72841
기	-7.73436
시	-7.73577
▁오늘	-7.73706
▁없다	-7.739
▁우려	-7.74258
할	-7.7486
...'	-7.74965
▁원	-7.7515
▁상승	-7.75603
라임	-7.76268
"(	-7.76454
▁판매	-7.7681
▁네이버	-7.76846
▁대선	-7.77161
원	-7.77535
▁다시	-7.77863
▁시장	-7.78123
▁못	-7.78218
▁세계	-7.79113
지	-7.79585
▁연속	-7.79603
▁조사	-7.79742
▁독감백신	-7.81305
▁野	-7.81695
▁기업	-7.81907
▁내	-7.82128
▁경찰	-7.84075
▁위해	-7.84508
▁민주당	-7.85669
▁속	-7.85773
주년	-7.85901
정부	-7.86125
▁규모	-7.86214
장	-7.86651
▁실시	-7.86756
▁광주	-7.86849
제	-7.87278
▁울산	-7.87801
▁새	-7.88243
▁집회	-7.886
상	-7.88656
▁시작	-7.88789
보다	-7.89302
▁별세	-7.8953
법	-7.8969
▁홍남기	-7.89999
▁국회	-7.9051
美	-7.90621
▁추석	-7.9092
다	-7.91391
이건희	-7.91615
▁징역	-7.91798
천	-7.92124
▁여성	-7.92476
▁확산	-7.92755
▁서비스	-7.93079
에도	-7.9309
부터	-7.93275
▁이재명	-7.9353
▁삼성	-7.93689
▁뉴스	-7.93875
▁시대	-7.94759
윤석열	-7.9509
▁왜	-7.95601
▁피해	-7.95637
▁올해	-7.95655
자	-7.96149
▁신규확진	-7.96249
▁SK	-7.96837
▁최초	-7.96942
▁날	-7.96978
▁위반	-7.97031
▁필요	-7.97545
▁방역	-7.98537
▁집단감염	-7.9867
서울	-7.98739
▁70	-7.99272
.	-8.00115
▁검토	-8.00395
▁내년	-8.00417
▁대구	-8.00613
▁체결	-8.00942
▁도입	-8.01149
▁인천	-8.01723
▁서울시	-8.01777
▁대응	-8.01845
▁논의	-8.02067
▁북한	-8.02468
보	-8.02986
▁아들	-8.03359
엔	-8.03367
&	-8.03469
중	-8.03517
뉴스	-8.03602
▁국정감사	-8.03682
▁모집	-8.04128
▁김종인	-8.04674
▁경기도	-8.04733
▁혐의	-8.05075
▁최고	-8.06167
▁중단	-8.07143
시간	-8.07169
형	-8.07778
▁총리	-8.08143
▁옵티머스	-8.08344
▁40	-8.08392
▁사건	-8.0845
▁두	-8.08536
’...	-8.0913
北	-8.09654
▁발언	-8.09719
▁靑	-8.09797
▁하락	-8.10353
▁교수	-8.11778
동	-8.12271
▁신청	-8.12415
▁제주	-8.12499
▁비대면	-8.12758
▁결정	-8.12926
▁바이든	-8.12996
▁없는	-8.13005
▁완화	-8.13187
▁15	-8.13228
▁60	-8.13419
해	-8.14154
▁이후	-8.14184
▁듯	-8.15437
면	-8.15639
▁매출	-8.15798
▁행사	-8.1581
▁촉구	-8.15957
▁기소	-8.15994
▁감소	-8.16024
▁일본	-8.16201
...‘	-8.16764
▁주호영	-8.17247
▁늘어	-8.17328
▁:	-8.17436
文	-8.17567
▁실적	-8.17781
▁숨져	-8.1805
▁전달	-8.18102
▁AI	-8.18265
▁삼성전자	-8.18498
▁지역	-8.19581
▁13	-8.19584
▁환자	-8.19609
▁불	-8.19852
▁17	-8.19993
▁확인	-8.20471
▁확정	-8.20586
▁후보	-8.20657
▁직원	-8.20673
화학	-8.21248
▁연휴	-8.21782
▁방문	-8.21939
조원	-8.2204
▁하루	-8.22382
에게	-8.22516
▁14	-8.22612
특징	-8.22696
▁글로벌	-8.22759
용	-8.23082
호	-8.23143
▁가능	-8.23356
▁문제	-8.23801
▁수출	-8.23808
▁조성	-8.2385
추미애	-8.23993
▁강경화	-8.24156
▁사장	-8.24647
▁가장	-8.24861
▁아냐	-8.24895
!	-8.2501
영상	-8.25038
▁질의	-8.25219
▁뒤	-8.25312
▁발견	-8.2551
▁돌파	-8.25835
▁가을	-8.26007
▁인사	-8.26238
호기	-8.26343
▁거리두기	-8.26664
▁코스피	-8.27291
▁설치	-8.28049
들	-8.28205
나	-8.28323
▁급증	-8.28413
▁감사	-8.28479
▁빅히트	-8.28591
▁대전	-8.28615
▁이	-8.29127
▁개선	-8.29348
▁라임	-8.29779
▁가능성	-8.29837
▁구축	-8.29928
단	-8.30105
▁김정은	-8.30404
단계	-8.31684
▁지속	-8.31822
▁전환	-8.31887
▁재판	-8.3202
▁기대	-8.32024
소식	-8.32068
▁대비	-8.32122
하고	-8.32143
▁공급	-8.32321
▁있다	-8.3296
일까지	-8.33214
▁국민	-8.33313
▁경기	-8.33964
▁넘어	-8.3433
▁이벤트	-8.34379
▁유지	-8.34494
5	-8.34497
기업	-8.35094
▁전망	-8.3518
▁남성	-8.3527
종	-8.35961
경찰	-8.35972
히	-8.3611
▁캠페인	-8.36571
▁지지	-8.37034
▁경제	-8.37052
▁이어	-8.38047
▁때	-8.38439
번째	-8.38559
▁오픈	-8.3922
↑	-8.39245
▁분양	-8.39388
▁계속	-8.39442
▁교육	-8.39448
하면	-8.3958
▁앞	-8.39726
▁할인	-8.39836
▁반대	-8.40086
▁CJ	-8.40258
▁이재용	-8.40634
▁현대차	-8.41357
▁부동산	-8.42226
▁김봉현	-8.4232
간	-8.42402
▁진출	-8.42607
진	-8.42676
▁19	-8.42969
및	-8.43598
▁KB	-8.43726
▁앞두고	-8.43932
▁참여	-8.44049
▁모두	-8.44488
수	-8.44534
부산	-8.44814
▁큰	-8.4493
▁집중	-8.45196
▁16	-8.45438
G	-8.45552
지역	-8.45677
▁비판	-8.45776
적	-8.45853
경제	-8.45863
▁요청	-8.45887
전자	-8.46272
삼성	-8.47022
▁내달	-8.47071
▁협약	-8.47571
▁달	-8.47607
▁함께	-8.4764
▁마감	-8.48213
▁여야	-8.48351
▁사망자	-8.48675
▁피격	-8.49067
D	-8.49093
▁결과	-8.49147
▁가족	-8.49203
▁BTS	-8.49329
▁영향	-8.49402
▁출범	-8.49421
▁신고	-8.49595
TF	-8.49694
사	-8.49779
미	-8.49785
▁브랜드	-8.50038
▁TV	-8.5007
▁승인	-8.50124
▁정책	-8.50553
▁연기	-8.50728
▁정	-8.50748
▁지급	-8.50928
▁해외	-8.51159
▁기준	-8.51835
누적	-8.5209
사업	-8.52104
▁사태	-8.52125
▁보고	-8.52134
▁檢	-8.52316
년만에	-8.52378
▁말	-8.52426
▁점검	-8.5245
대선	-8.52645
▁확보	-8.52726
▁협력	-8.52853
▁현장	-8.53039
전	-8.53112
▁해	-8.5325
▁내일	-8.53338
▁학생	-8.53385
▁경남	-8.5347
▁시	-8.53793
▁영업익	-8.53993
▁평가	-8.54016
▁집	-8.54022
▁마련	-8.54057
▁찾	-8.54243
▁적발	-8.5429
바이든	-8.54376
...1	-8.54405
한국	-8.54597
LG	-8.54808
▁학교	-8.54888
▁위기	-8.55123
▁(	-8.55254
▁차량	-8.55265
▁주목	-8.55348
▁WTO	-8.55376
달러	-8.5549
▁18	-8.55726
▁등교	-8.55884
▁베트남	-8.56359
中	-8.56435
문	-8.56559
▁제공	-8.56578
▁불법	-8.56698
▁개막	-8.56929
▁80	-8.56989
▁사고	-8.57108
→	-8.57414
▁플랫폼	-8.57473
검찰	-8.57514
▁주민	-8.57572
▁효과	-8.57619
▁잇따라	-8.57731
4	-8.57942
▁회복	-8.58148
▁소송	-8.58323
▁프랑스	-8.58728
▁정정순	-8.59083
▁사과	-8.59328
A	-8.59371
▁21	-8.59383
전국	-8.59591
▁대책	-8.59617
野	-8.59639
▁누적	-8.59788
▁명	-8.59805
▁공방	-8.60095
분	-8.60352
▁참석	-8.60617
K	-8.60938
▁외국인	-8.61207
▁지시	-8.61518
방역	-8.61593
▁지정	-8.61874
▁뉴딜	-8.62012
6	-8.62078
층	-8.62085
▁디지털	-8.62122
7	-8.6225
▁문재인	-8.62316
게	-8.62484
▁유럽	-8.6255
▁예방	-8.63077
▁성장	-8.63298
비	-8.63416
▁秋	-8.6346
▁업무협약	-8.63761
▁26	-8.63797
▁취소	-8.63849
▁K	-8.64046
성	-8.64324
▁이유	-8.64333
▁생산	-8.64466
▁반발	-8.64813
與	-8.64959
내	-8.65496
m	-8.65667
▁간	-8.65676
▁백악관	-8.6639
▁충돌	-8.66459
▁구형	-8.66669
▁관리	-8.66939
▁공모	-8.67141
▁극복	-8.67385
오늘의	-8.67423
▁충북	-8.67693
S	-8.67752
▁시행	-8.67883
▁요구	-8.67906
▁기념	-8.6791
▁고	-8.68093
▁교사	-8.68581
▁거부	-8.69017
▁법원	-8.69032
▁조치	-8.69049
▁무료	-8.69263
▁경북	-8.69269
▁시위	-8.6929
▁기술	-8.6943
▁전북	-8.69446
▁책임	-8.69584
▁합의	-8.69716
▁역대	-8.69864
...3	-8.70246
▁상장	-8.70257
▁접수	-8.70608
日	-8.7064
▁예상	-8.70935
▁성공	-8.71012
...2	-8.71111
▁22	-8.71147
▁사용	-8.71369
▁이전	-8.71628
여	-8.71698
▁착수	-8.71805
▁인수	-8.71888
새	-8.71975
▁대한민국	-8.71984
시장	-8.72094
▁다	-8.72451
▁연장	-8.72486
▁병원	-8.72869
▁한글날	-8.73109
~	-8.73161
▁금지	-8.73371
▁증시	-8.73372
▁남편	-8.73429
마스크	-8.7347
▁열병식	-8.73601
▁고발	-8.73843
▁총장	-8.74103
BTS	-8.74125
▁정세균	-8.7422
당	-8.74488
▁강원	-8.74493
▁최다	-8.74595
▁반등	-8.74689
▁일	-8.74693
▁허용	-8.74791
▁정의당	-8.74832
▁계약	-8.7503
▁스가	-8.75221
며	-8.75256
▁청약	-8.75596
▁맞아	-8.75601
▁수도권	-8.7568
▁200	-8.75747
▁대출	-8.76011
▁韓	-8.76189
▁투입	-8.7648
▁손	-8.76548
▁안돼	-8.76674
▁실종	-8.76893
번	-8.76953
상보	-8.76978
▁피살	-8.77001
▁절반	-8.77031
▁28	-8.77077
이슈	-8.77264
▁임상	-8.77268
▁사무총장	-8.77375
▁제출	-8.77705
▁본격	-8.77993
▁장	-8.78123
▁75	-8.7813
▁오염수	-8.78481
▁답변	-8.78552
해야	-8.78655
▁본격화	-8.79126
▁부상	-8.79244
▁총	-8.79357
▁주택	-8.79374
▁2021	-8.79414
▁유명희	-8.79436
▁주장	-8.79521
▁돈	-8.79553
▁대신	-8.79677
9	-8.79711
▁23	-8.7991
▁시스템	-8.80015
온라인	-8.80035
▁통과	-8.80127
국민	-8.80208
▁27	-8.80287
▁일자리	-8.80364
▁날씨	-8.80657
▁일부	-8.80793
▁수주	-8.80956
▁없이	-8.80967
국내	-8.81002
秋	-8.81051
▁압수수색	-8.81189
▁25	-8.81214
▁채용	-8.81256
▁활성화	-8.81335
Q	-8.81562
안	-8.8181
독감	-8.8182
▁자릿수	-8.81879
▁아니다	-8.8188
▁연	-8.81925
▁직접	-8.82039
▁나서	-8.82091
중국	-8.824
올해	-8.8241
▁기부	-8.82518
라	-8.82616
식	-8.82724
민주당	-8.82761
比	-8.82772
▁주요	-8.82775
▁맞은	-8.82859
▁폐쇄	-8.82871
백신	-8.8306
▁배터리	-8.83094
▁D	-8.83143
더	-8.83269
▁치료제	-8.83297
▁피해자	-8.83338
▁받아	-8.83484
▁공모전	-8.84034
내년	-8.84042
▁KT	-8.84262
▁1000	-8.84441
▁노동자	-8.84497
▁구속	-8.84532
▁숨진	-8.84532
▁예고	-8.8458
▁24	-8.84607
▁발행	-8.85094
▁개정	-8.85117
▁의심	-8.85233
>	-8.85451
▁있는	-8.8574
▁김태년	-8.85772
▁준비	-8.8584
▁'2020	-8.85907
▁위원장	-8.86062
P	-8.86077
▁양성	-8.86114
▁유치	-8.86251
▁사실	-8.86256
▁폭행	-8.86282
▁평균	-8.86356
▁거래	-8.86474
▁소상공인	-8.86596
▁제품	-8.86604
▁활용	-8.86615
▁진중권	-8.86636
글로벌	-8.86724
▁하는	-8.86793
▁NH	-8.86793
국민의힘	-8.87001
김봉현	-8.8708
▁철거	-8.87096
월성	-8.87101
▁수준	-8.87112
그래픽	-8.87321
▁스타트업	-8.87335
▁규제	-8.87453
▁요양병원	-8.87456
▁접촉	-8.87502
▁나선	-8.87587
▁갈등	-8.87855
▁계획	-8.88262
▁놓고	-8.88309
급	-8.88509
공수처	-8.88588
살	-8.88788
한다	-8.8881
▁간담회	-8.88825
▁예정	-8.88839
▁청와대	-8.88857
▁GS	-8.88902
▁살해	-8.89086
▁<	-8.8927
▁방류	-8.89399
▁청년	-8.89464
▁미래	-8.89504
▁전기차	-8.89622
▁세	-8.89673
▁프로그램	-8.89859
군	-8.89975
▁올	-8.90165
▁출발	-8.90183
세계	-8.90379
▁주식	-8.9044
인천	-8.90504
▁무죄	-8.9051
▁통해	-8.90512
▁돌입	-8.90574
▁사상	-8.90858
▁공동	-8.90903
▁중소기업	-8.90967
▁로비	-8.90998
▁MOU	-8.91024
▁국감서	-8.91155
교육	-8.91273
검사	-8.91419
▁전남	-8.91441
▁증인	-8.9154
▁조정	-8.91654
▁차단	-8.91738
▁법무부	-8.91749
▁육박	-8.91834
▁구조	-8.91978
▁출석	-8.91992
▁특검	-8.92132
▁금감원	-8.92137
▁출신	-8.92936
▁예방접종	-8.931
▁영상	-8.93132
▁획득	-8.93163
▁사기	-8.93207
?"	-8.9322
▁회의	-8.93356
▁이사장	-8.93388
▁제한	-8.9376
금융	-8.9381
▁힘	-8.93944
심	-8.94316
▁선거	-8.94453
▁시민	-8.94494
▁입국	-8.94596
▁연다	-8.94674
추석	-8.94702
2020]	-8.94795
▁마지막	-8.94813
▁선고	-8.94921
부동산	-8.94954
초	-8.95021
권	-8.95021
▁러시아	-8.95032
▁부회장	-8.95147
▁잘	-8.9517
▁곳곳	-8.95499
▁비상	-8.95628
▁故	-8.95688
▁위험	-8.95759
▁영업이익	-8.95844
▁상황	-8.95871
▁국가	-8.95923
▁인증	-8.96044
▁김종철	-8.96166
▁된	-8.96746
▁혁신	-8.96876
▁주상복합	-8.9708
▁첫날	-8.97342
공무원	-8.97463
SK	-8.97662
+	-8.97795
대주주	-8.97888
▁대한	-8.9821
▁못해	-8.98257
▁적용	-8.98277
▁안전	-8.98573
▁육성	-8.98576
▁기록	-8.98988
▁추정	-8.99009
조국	-8.99322
학교	-8.99392
▁前	-8.99497
▁인기	-8.99497
▁긴급	-8.99503
▁인정	-8.99547
▁조국	-8.99558
디지털	-8.99741
▁완료	-8.99749
s	-8.99759
세대	-8.99775
▁국제	-8.99803
날씨	-8.99848
▁ICBM	-8.99863
울산	-9.00058
▁빈소	-9.00274
미국	-9.00472
▁아닌	-9.00494
▁주	-9.00607
야	-9.00865
▁광주시	-9.01109
▁검거	-9.01263
▁돼	-9.01288
▁초	-9.01456
▁문대통령	-9.01457
▁적극	-9.01733
▁군	-9.01943
▁결국	-9.01958
▁비	-9.02168
▁의사	-9.02497
한글날	-9.02584
▁김	-9.02634
▁주가	-9.02666
▁할	-9.02732
▁격리	-9.02794
▁선택	-9.0281
▁오늘부터	-9.03008
▁무더기	-9.03454
▁조문	-9.03562
▁선서	-9.03596
AI	-9.03719
정	-9.03733
▁나선다	-9.03737
▁음성	-9.0386
유명희	-9.0404
▁개관	-9.04117
▁29	-9.04367
▁최근	-9.04394
▁길	-9.04438
▁유족	-9.04612
▁건	-9.04657
▁집단	-9.04746
▁제안	-9.04751
운	-9.05019
e	-9.05058
가구	-9.05438
▁잇	-9.05443
전문	-9.05624
▁받은	-9.05744
...5	-9.05837
오늘	-9.05887
북한	-9.06033
▁처리	-9.06051
▁협상	-9.06164
▁신임	-9.06438
화	-9.06477
▁하반기	-9.06663
▁해결	-9.06833
▁여전	-9.07117
8	-9.07275
▁온	-9.07349
▁입장	-9.07424
▁매각	-9.07447
▁부산시	-9.07481
▁속도	-9.0749
▁강남	-9.0778
▁논란에	-9.07884
경기	-9.0799
▁청구	-9.0802
여명	-9.08027
▁제재	-9.08082
▁공식	-9.08117
전남	-9.08248
관	-9.08338
▁이틀	-9.08379
▁민주	-9.08391
▁부문	-9.084
▁어떻게	-9.08436
▁당	-9.08582
▁급락	-9.08806
▁사람	-9.08877
독감백신	-9.08926
▁스마트	-9.09017
▁감찰	-9.09148
韓	-9.09192
▁통제	-9.09496
▁우리	-9.09618
▁31	-9.09788
▁재확산	-9.0996
▁발전	-9.09981
▁인도	-9.10049
▁있어	-9.10205
▁징계	-9.1032
전년	-9.10326
내일	-9.10426
▁공수처	-9.10525
▁‘2020	-9.10543
▁폼페이오	-9.1064
▁없었다	-9.10691
▁외교부	-9.10722
...4	-9.10748
▁치료	-9.1097
▁펀드	-9.10985
▁열어	-9.1107
▁변호사	-9.11123
▁오후	-9.1129
▁300	-9.11297
하다	-9.11678
했다	-9.11689
▁공장	-9.11699
▁강원도	-9.11844
스	-9.11965
▁원희룡	-9.12106
▁실형	-9.12449
▁부부	-9.12551
▁기자회견	-9.12579
靑	-9.12605
▁소녀상	-9.12898
▁가격	-9.12905
▁채	-9.13122
▁택배	-9.13165
▁500	-9.13287
▁형	-9.1334
▁이명박	-9.13357
리	-9.13537
▁주말	-9.13657
▁선	-9.13734
▁퇴원	-9.13887
▁이번엔	-9.14005
▁포스코	-9.1401
투자	-9.1401
제주	-9.14099
점	-9.14156
현장	-9.14252
▁압박	-9.14378
▁노력	-9.14464
▁판정	-9.14515
▁채택	-9.14516
비대면	-9.14546
▁건강	-9.14572
우리	-9.14581
병원	-9.14628
▁김현미	-9.14649
▁청소년	-9.14825
▁대규모	-9.15096
부	-9.15152
▁박능후	-9.15389
▁예산	-9.15627
/	-9.15853
왜	-9.16012
▁관심	-9.16264
▁만든	-9.16285
ᆞ	-9.16382
▁역사	-9.16473
▁달성	-9.16567
센터	-9.16634
▁기회	-9.16656
▁이용	-9.16785
▁여행	-9.16823
▁친환경	-9.16836
▁정치	-9.16971
▁신형	-9.17038
▁경영	-9.17189
둔	-9.1719
▁지지율	-9.17205
▁영국	-9.17302
▁여부	-9.1742
▁사회적	-9.17475
▁월성	-9.17496
▁수도	-9.175
▁론칭	-9.17513
▁이하	-9.17546
▁방안	-9.17591
김정은	-9.17612
▁아동	-9.17692
▁전략	-9.1775
수도권	-9.17762
거리두기	-9.17807
▁LH	-9.1787
▁감면	-9.17884
▁사진	-9.17893
▁10%	-9.18199
▁판단	-9.18346
▁재산세	-9.18458
▁노출	-9.18474
▁업무보고	-9.18521
▁처분	-9.18658
▁고소	-9.1869
▁전남도	-9.18761
▁우수	-9.18897
▁대학	-9.19115
천명	-9.19166
▁아침	-9.19419
▁그	-9.19521
▁부담	-9.20032
▁유엔	-9.20135
▁A	-9.20178
▁취임	-9.20283
▁상품	-9.20296
▁송치	-9.20369
▁선언	-9.20413
▁30%	-9.20491
▁분석	-9.20604
▁부양책	-9.20629
하나	-9.20783
광주	-9.20836
▁답	-9.20871
구	-9.20885
최대	-9.21003
이재명	-9.21007
▁유세	-9.21041
▁착용	-9.21044
▁WHO	-9.21218
▁의무화	-9.21223
하이닉스	-9.21278
▁설립	-9.21434
▁사례	-9.21452
▁코스닥	-9.21476
▁인근	-9.21491
토론	-9.215
▁모든	-9.21542
▁은행	-9.21896
▁반도체	-9.22101
▁감사원	-9.22148
▁달라	-9.22149
길	-9.22186
▁노인	-9.2239
▁편지	-9.22396
▁산업	-9.22411
▁기념식	-9.22543
▁유	-9.22639
▁업무	-9.22647
▁공략	-9.22698
▁생각	-9.22872
대전	-9.22915
▁성추행	-9.22927
▁독일	-9.22979
▁찾아	-9.23044
▁보호	-9.23128
▁목표	-9.23252
▁정의선	-9.23376
▁기반	-9.23402
▁개천절	-9.23465
▁도심	-9.23618
▁전면	-9.23695
▁열려	-9.23704
▁급등	-9.23711
▁선임	-9.23746
▁이유는	-9.23777
▁시간	-9.23814
▁SNS	-9.23839
▁변경	-9.24052
등	-9.24058
법원	-9.241
▁두고	-9.2412
▁시험	-9.24192
▁일가족	-9.2427
▁하나	-9.24392
기관	-9.24404
▁줄	-9.24411
▁해소	-9.24449
▁부총리	-9.24468
▁진화	-9.24487
김종인	-9.24567
▁올라	-9.24632
▁전파	-9.24648
▁어제	-9.24754
▁심각	-9.24847
▁판결	-9.24894
▁달러	-9.24937
▁전문가	-9.24972
▁자료	-9.25019
▁연루	-9.25036
▁같은	-9.25119
이낙연	-9.2521
▁태풍	-9.25211
▁처벌	-9.25276
▁답변하	-9.25533
▁딸	-9.25819
▁중학생	-9.2582
▁금태섭	-9.2587
▁야당	-9.26142
처럼	-9.26169
시설	-9.26178
일본	-9.26291
▁33	-9.2631
▁국토부	-9.26427
대한통운	-9.26578
▁제기	-9.26602
▁고속도로	-9.267
▁52	-9.26807
▁핼러윈	-9.2682
▁서욱	-9.26822
▁건설	-9.26849
▁공격	-9.26852
특검	-9.26874
▁아이	-9.26894
km	-9.26939
▁제작	-9.26997
▁폭로	-9.2707
역대	-9.27092
▁강세	-9.27147
심서	-9.27183
▁어린이집	-9.27186
▁창원시	-9.27186
▁등장	-9.27204
▁될	-9.27569
▁활동	-9.27597
▁폐지	-9.27737
▁배달	-9.27878
▁총력	-9.27906
▁겨냥	-9.27947
산업	-9.28023
▁성과	-9.28023
▁CEO	-9.28062
머니	-9.28071
▁동참	-9.28106
▁부인	-9.28295
▁이탈리아	-9.28516
▁원인	-9.28543
▁공공기관	-9.28724
후	-9.28754
▁집값	-9.28853
서비스	-9.28936
▁강기정	-9.28968
▁신설	-9.2917
다시	-9.29264
게시판	-9.29297
▁체포	-9.29311
▁언택트	-9.29326
년새	-9.29372
▁지난해	-9.29417
▁수색	-9.29486
▁50%	-9.29519
▁만난	-9.29557
▁금융	-9.29677
▁태국	-9.29741
▁수익	-9.29923
가족	-9.30013
린	-9.30157
▁벌금	-9.30184
▁고객	-9.30189
년까지	-9.30229
▁불안	-9.30347
▁업계	-9.30576
▁0	-9.3065
건설	-9.30667
▁시정연설	-9.30873
▁게	-9.30895
▁전세	-9.30955
증권	-9.30987
▁공연	-9.3101
▁협의	-9.31056
▁광고	-9.31103
▁장애인	-9.31215
경북	-9.31249
▁부족	-9.31283
▁연구	-9.31297
하지	-9.31306
▁호소	-9.31412
산	-9.31466
▁홍보	-9.31606
▁충남	-9.31636
▁구성	-9.31687
발	-9.3175
했던	-9.31761
▁안해	-9.31801
▁소식에	-9.31867
▁개시	-9.32138
▁유출	-9.32166
]“	-9.32258
▁질타	-9.3237
대상	-9.32523
▁유통	-9.32535
▁본	-9.32554
▁울산시	-9.3267
TV	-9.32714
▁최종	-9.32729
▁통합	-9.32771
그룹	-9.32793
▁복귀	-9.32802
▁경고	-9.33034
▁프로젝트	-9.33159
러	-9.332
피격	-9.33342
▁탓	-9.33421
▁축제	-9.33445
▁시도	-9.33583
▁운영자	-9.33585
하게	-9.33639
유럽	-9.3368
요	-9.33684
▁체포동의안	-9.33724
▁선봬	-9.33826
▁임명	-9.33845
▁국민연금	-9.33972
▁개장	-9.34097
▁어린이	-9.3413
▁정보	-9.34185
▁노조	-9.34222
▁결론	-9.34323
난	-9.34335
스가	-9.34365
▁정은경	-9.34482
대한민국	-9.34636
▁화상	-9.34657
▁가동	-9.34687
▁축소	-9.34779
▁않아	-9.3498
서울시	-9.34995
▁통화	-9.35027
업체	-9.35041
해외	-9.35122
하며	-9.35216
▁발굴	-9.35274
▁어려워	-9.35323
지원	-9.35353
▁참가	-9.35433
▁많아	-9.35511
명으로	-9.35697
B	-9.35826
하루	-9.35847
하라	-9.36163
▁불가피	-9.36263
▁대화	-9.36264
▁ESG	-9.36317
금	-9.36383
집	-9.36411
▁새로운	-9.36435
▁현대	-9.36459
檢	-9.36466
▁신	-9.3653
▁경쟁	-9.36544
▁특별	-9.36587
▁만든다	-9.3661
총	-9.36728
천만원	-9.36779
▁이달	-9.36825
▁포함	-9.36903
일만에	-9.36951
▁원전	-9.37043
소	-9.37098
▁개정안	-9.37186
▁다른	-9.37207
▁이마트	-9.37227
t	-9.37232
주간	-9.37237
▁롯데	-9.37254
▁기관	-9.37307
하던	-9.37519
▁발의	-9.37661
▁이틀째	-9.37725
▁개편	-9.37747
▁접대	-9.3782
사진	-9.37828
▁격차	-9.37993
자막뉴스	-9.38005
환자	-9.38013
▁모임	-9.38022
▁광화문	-9.38155
▁환율	-9.38276
▁쿠팡	-9.38397
▁카드	-9.38427
▁커	-9.385
만개	-9.38543
▁공정위	-9.38975
▁뉴욕증시	-9.38976
▁주당	-9.39036
▁지적	-9.39084
▁수요	-9.39163
역	-9.39183
▁테러	-9.39295
▁유튜브	-9.39338
▁구매	-9.39439
▁손잡고	-9.39452
▁국시	-9.39581
▁반박	-9.39741
▁단속	-9.39769
▁후쿠시마	-9.39819
인데	-9.39827
징역	-9.39892
▁성폭행	-9.39902
▁한전	-9.39907
▁수업	-9.39914
▁차벽	-9.39918
개국	-9.39954
율	-9.40049
▁의원들	-9.401
▁물	-9.40106
빅히트	-9.40196
▁가입	-9.40267
▁35	-9.403
‧	-9.40302
대구	-9.40306
▁마무리	-9.40308
▁포천	-9.40328
▁국방부	-9.40345
▁의견	-9.40396
▁지자체	-9.4041
▁36	-9.40457
▁대주주	-9.40476
국	-9.40485
▁포럼	-9.40497
개월만에	-9.40506
▁20%	-9.40583
▁전용	-9.40584
시스템	-9.40633
정치	-9.40717
년째	-9.40734
▁시진핑	-9.40751
▁중요	-9.40765
▁대형	-9.40782
▁추모	-9.40798
국회	-9.41048
▁軍	-9.41192
▁허가	-9.41228
▁개소	-9.41392
▁중심	-9.41464
증시	-9.41662
신	-9.41754
▁차	-9.41811
▁식약처	-9.41998
銀	-9.42039
▁많이	-9.42256
홍남기	-9.42294
尹	-9.423
▁업체	-9.42309
▁가구	-9.42323
▁항의	-9.42386
▁자녀	-9.42415
▁운전자	-9.42546
▁무혐의	-9.42594
▁좋은	-9.42598
종전선언	-9.42706
▁추천	-9.42781
온	-9.428
▁분야	-9.42921
▁맞춤형	-9.42924
▁여파	-9.42933
▁모델	-9.42941
▁자동차	-9.42953
▁이동	-9.43364
수사	-9.4343
현	-9.43476
또	-9.43537
▁약속	-9.43565
되는	-9.43577
▁1%	-9.43601
▁R	-9.43657
▁나와	-9.43889
▁끝	-9.43893
▁혜택	-9.43951
▁자가격리	-9.44133
▁방한	-9.44339
▁나누는	-9.44368
▁변화	-9.44453
▁법	-9.4449
▁2000	-9.44507
여야	-9.44623
▁기자	-9.44625
배터리	-9.44703
경남	-9.44735
▁의장	-9.44749
▁의료진	-9.44787
▁연설	-9.44879
▁건물	-9.44887
▁마음	-9.44963
여성	-9.4506
▁임원	-9.45138
▁소환	-9.45229
▁건립	-9.45271
▁강조	-9.45278
▁봉쇄	-9.45335
▁부실	-9.45439
▁사퇴	-9.45472
▁위협	-9.45504
명은	-9.45561
▁눈	-9.45618
▁낮아	-9.4565
▁역할	-9.45687
▁개설	-9.45716
▁따라	-9.45787
▁코로나로	-9.45803
▁측	-9.45833
▁질의에	-9.45885
▁조기	-9.459
▁홍콩	-9.45922
▁열린다	-9.46024
▁개방	-9.4604
▁90	-9.46069
▁홍준표	-9.46085
▁최저	-9.46256
▁투표	-9.46298
▁범죄	-9.46365
▁시민들	-9.46418
▁체험	-9.46424
아들	-9.46435
▁산	-9.46438
▁훼손	-9.46636
▁애도	-9.46798
▁핵심	-9.46866
▁환경	-9.46889
▁전셋값	-9.46942
▁간부	-9.4698
▁제외	-9.46981
▁동생	-9.46988
▁수사지휘권	-9.47065
뚝	-9.47111
證	-9.47237
▁호주	-9.47277
p	-9.47341
사망	-9.47346
▁참석한	-9.47368
그	-9.47507
▁산불	-9.47512
부산시장	-9.47543
▁원내대표	-9.47589
▁S	-9.47701
아	-9.47781
▁정체	-9.47889
준	-9.4795
▁안철수	-9.47997
강원	-9.48006
▁서울대	-9.48079
▁여전히	-9.48127
별	-9.48139
▁동시	-9.48172
▁상대	-9.48177
▁대폭	-9.48185
▁英	-9.48203
▁나라	-9.48277
▁전쟁	-9.48323
▁배송	-9.48486
현대차	-9.48516
네이버	-9.48585
▁미세먼지	-9.48629
▁작년	-9.48653
▁받는	-9.48654
▁말라	-9.48678
▁EU	-9.48709
▁희망	-9.48718
▁매일	-9.4874
▁추락	-9.48787
▁여당	-9.48788
▁먼저	-9.48804
▁언론	-9.48811
▁지금	-9.4882
▁적	-9.48893
▁인구	-9.48973
▁주의	-9.49063
▁음주운전	-9.49136
▁아직	-9.49257
씨	-9.4931
▁세금	-9.49402
전세	-9.49413
▁선보여	-9.49446
박원순	-9.49457
▁촬영	-9.4951
삼성전자	-9.49535
▁흉기	-9.49593
▁일교차	-9.49613
▁도시	-9.49635
마다	-9.49649
▁기온	-9.49723
▁인상	-9.49906
▁“‘	-9.49973
▁가치	-9.50045
▁다음	-9.50095
▁비난	-9.50108
▁경쟁률	-9.50135
안전	-9.50229
...11	-9.5023
하자	-9.50309
▁담	-9.50325
핼러윈	-9.50454
▁부산서	-9.50626
▁선발	-9.50676
▁당국	-9.50704
코리아	-9.50711
▁높아	-9.50773
사진관	-9.50823
▁응원	-9.50986
▁58	-9.50994
▁2030	-9.51192
▁쓴	-9.51223
▁위기가구	-9.51337
일째	-9.51363
故	-9.51432
...10	-9.5145
업계	-9.51642
▁조작	-9.51661
▁수입	-9.51672
▁전시	-9.51722
▁표창	-9.51813
▁성장률	-9.51857
↓	-9.51957
▁고양시	-9.51998
▁목소리	-9.52044
▁드론	-9.52045
▁토론	-9.52068
▁불출석	-9.52203
▁들어	-9.52229
▁中企	-9.52285
▁브리핑	-9.52467
▁토론회	-9.52499
천억	-9.52515
▁과징금	-9.52597
▁버스	-9.52672
▁5000	-9.52695
▁대사	-9.52757
▁택배기사	-9.5276
▁방지	-9.52766
▁특허	-9.53068
▁형제	-9.53084
니	-9.53407
추가	-9.53447
▁최소	-9.53456
▁승리	-9.53482
▁손실	-9.53508
▁동의	-9.53547
▁선박	-9.53716
스마트	-9.53833
치	-9.5385
▁앱	-9.53899
야당	-9.53899
▁대만	-9.54023
▁우선	-9.54039
▁반영	-9.54047
▁도전	-9.54065
▁만	-9.54088
▁진입	-9.54113
▁사흘	-9.5413
▁갑질	-9.54278
▁강력	-9.54345
[	-9.54358
▁개인	-9.54375
▁만나	-9.54388
▁면담	-9.54389
▁영업	-9.54437
▁선거법	-9.54465
▁유은혜	-9.54529
오	-9.54623
▁공사	-9.54629
▁이름	-9.54673
▁공유	-9.54845
▁박차	-9.54865
▁교통사고	-9.54894
▁대피	-9.54916
충남	-9.54918
12	-9.54954
▁원장	-9.54964
▁재계	-9.55041
경	-9.55135
▁후원	-9.55177
▁연내	-9.55247
올	-9.5531
▁일제	-9.55314
관리	-9.55382
두	-9.55407
▁인하	-9.55431
20	-9.55497
▁경남도	-9.55542
▁창원	-9.55611
기술	-9.55738
▁포기	-9.55812
▁전년	-9.55837
▁무기	-9.56016
▁늘었다	-9.5604
첫	-9.56111
강경화	-9.56157
▁FDA	-9.56234
▁위로	-9.56287
▁콘텐츠	-9.56314
▁고민	-9.56378
▁오	-9.56463
▁이어져	-9.56715
株	-9.56722
▁시민단체	-9.56762
▁취업	-9.56806
▁지사	-9.56866
▁오전	-9.5695
▁준공	-9.5713
▁41	-9.57242
주민	-9.57262
▁밤	-9.57265
확진자	-9.57288
▁프리미엄	-9.57314
정책	-9.57319
연	-9.57357
옵티	-9.57401
▁눈물	-9.57466
속	-9.57473
주호영	-9.57549
▁과태료	-9.576
▁클럽	-9.57601
▁집행유예	-9.57627
▁약	-9.57663
▁한국인	-9.57782
▁처음	-9.57807
▁전시회	-9.57971
▁불과	-9.58082
▁질병청	-9.58086
▁과로사	-9.58088
음성	-9.58093
목표가	-9.58106
▁대전시	-9.58126
시황	-9.58133
▁문화	-9.58174
▁우리은행	-9.58229
▁대법원	-9.58472
▁지분	-9.58505
분의	-9.58537
▁위	-9.58538
▁메시지	-9.58581
▁공천	-9.5871
지구	-9.58767
‘	-9.58789
론	-9.58824
▁시상식	-9.58843
▁나온다	-9.58861
▁상태	-9.58931
▁상생	-9.58968
▁경쟁력	-9.58988
▁전문	-9.59035
일간	-9.59138
百	-9.59152
▁창업	-9.59249
포토뉴스	-9.59424
▁공포	-9.59433
▁디자인	-9.59533
▁출근길	-9.59536
▁줄어	-9.596
지역발생	-9.59654
▁타고	-9.59668
▁아프리카돼지열병	-9.59694
▁해상	-9.59727
'..."	-9.59778
▁총선	-9.59884
▁포항	-9.59969
주택	-9.60067
의원	-9.60072
▁부모	-9.60087
▁태양광	-9.60098
▁한미	-9.60116
▁몰려	-9.60175
▁소통	-9.60212
▁용인	-9.60244
▁쇼핑	-9.60323
▁이야기	-9.6033
▁출석한	-9.6034
▁소비	-9.60416
▁속출	-9.60442
n	-9.60448
▁걱정	-9.60451
▁전원	-9.60554
석	-9.60604
▁군부대	-9.60747
불법	-9.60863
재	-9.60969
▁해제	-9.6099
C	-9.61
▁쌀쌀	-9.61014
▁창건	-9.61065
▁바이러스	-9.61165
가을	-9.61228
▁급감	-9.61257
發	-9.61284
는데	-9.61312
직원	-9.61343
▁90%	-9.61416
▁권고	-9.61427
르면	-9.61456
돈	-9.61545
▁기대감	-9.6164
▁거리	-9.61642
접종	-9.61656
▁당부	-9.61684
천만	-9.6169
▁북	-9.61742
때	-9.61811
▁데이터	-9.61847
국가	-9.6185
▁번	-9.61901
▁윤석헌	-9.61928
투자증권	-9.61934
▁강행	-9.61959
▁공수처장	-9.61983
▁호텔	-9.62046
▁상반기	-9.62058
▁아이디어	-9.62098
▁한다	-9.62111
▁방송	-9.6212
▁32	-9.62228
▁수수료	-9.62526
▁기간	-9.62532
▁눈길	-9.62541
▁진술	-9.62642
▁정상	-9.62676
▁향해	-9.6274
▁발간	-9.62748
25	-9.62763
▁세종	-9.62833
▁로봇	-9.62959
▁대화하는	-9.62984
▁오는	-9.62985
반도체	-9.62992
판	-9.63057
▁차기	-9.63133
▁전투	-9.63152
▁내년부터	-9.63259
▁오피스텔	-9.63291
▁실패	-9.63414
▁시급	-9.63545
브리핑	-9.63657
▁매입	-9.63667
WTO	-9.63687
▁수사팀	-9.63709
채	-9.63776
▁마케팅	-9.63788
▁언급	-9.6379
▁모바일	-9.63934
▁브라질	-9.63994
인터뷰	-9.6404
▁추돌	-9.64192
▁프로모션	-9.64224
▁'1	-9.64317
든	-9.64411
▁신제품	-9.6443
▁취득	-9.64488
▁뉴	-9.64521
▁흑자	-9.64678
▁송구	-9.64738
번방	-9.64745
▁선출	-9.64967
▁해야	-9.64995
▁등록	-9.65052
▁하태경	-9.65061
▁교체	-9.65228
▁적자	-9.65262
▁사전	-9.65307
▁장학금	-9.65349
직	-9.6535
▁도로	-9.65387
▁기아차	-9.6543
▁탈당	-9.65437
▁명예훼손	-9.65622
▁성범죄	-9.65654
▁빠진	-9.65692
아파트	-9.65694
▁삭제	-9.65777
찾아가는	-9.65784
▁재정준칙	-9.65824
▁인천시	-9.65855
▁무기징역	-9.65866
▁상가	-9.65993
액	-9.6601
▁단	-9.66081
냐	-9.66116
비상	-9.66126
▁대법	-9.66128
▁40%	-9.66216
▁온라인으로	-9.66249
M	-9.66375
재산	-9.66485
▁나경원	-9.66498
▁재	-9.66499
▁자체	-9.66548
전문가	-9.66586
?"...	-9.66643
▁자회사	-9.66678
지만	-9.66704
▁구글	-9.66747
작년	-9.66788
▁월	-9.66858
▁참배	-9.66865
▁尹	-9.66905
영	-9.66922
▁전체	-9.66964
▁영화	-9.67068
▁M	-9.67148
▁동안	-9.67159
▁박영선	-9.67202
▁번째	-9.67278
▁명품	-9.67327
▁MB	-9.67343
가지	-9.67421
▁이제	-9.67424
될	-9.67461
▁심사	-9.67468
▁SKT	-9.67485
▁방치	-9.67488
▁서울시장	-9.67539
차량	-9.67541
여행	-9.67577
▁자유	-9.67597
▁판	-9.67622
▁기원	-9.67704
▁400	-9.67834
외국인	-9.67867
학생	-9.67947
▁침해	-9.68025
▁박	-9.68153
환경	-9.68294
률	-9.68295
▁전두환	-9.683
▁서민	-9.68346
▁법정	-9.68358
▁3000	-9.68506
▁72	-9.68519
▁관계	-9.68604
X	-9.6868
▁53	-9.68703
▁의정부	-9.68717
▁나눔	-9.68788
▁이인영	-9.68822
대책	-9.68891
▁않는	-9.69011
언택트	-9.69034
▁150	-9.6905
▁대우건설	-9.6921
▁600	-9.69241
▁外	-9.69543
▁대	-9.69599
▁대학생	-9.69603
▁특혜	-9.69618
▁씨	-9.69621
금감원	-9.69717
▁세미나	-9.69752
▁시각	-9.69766
▁시설	-9.69822
▁매년	-9.69855
▁소재	-9.69916
▁게임	-9.69923
▁장비	-9.69957
▁변수	-9.70102
▁사전투표	-9.70128
▁청원	-9.70224
함	-9.70295
▁넘었다	-9.70296
▁해경	-9.70312
▁보도	-9.70341
강남	-9.70388
▁통계	-9.70436
▁벌금형	-9.70444
문화	-9.70616
▁나온	-9.70743
등급	-9.70871
청년	-9.70897
▁차관	-9.71011
▁소비자	-9.71043
차례	-9.71133
▁서초구	-9.71148
KB	-9.71171
어	-9.71214
받은	-9.71249
인당	-9.7127
아침	-9.71353
▁역량	-9.71375
선거법	-9.7144
▁소폭	-9.71547
이재용	-9.71558
▁대검	-9.71614
▁고교생	-9.71673
▁제조	-9.71705
▁경북도	-9.71734
▁측근	-9.71976
▁검찰총장	-9.72084
▁최재형	-9.72126
?”	-9.72141
북	-9.72205
척	-9.72245
▁주도	-9.72247
▁노선	-9.72268
▁있었다	-9.72301
펀드	-9.72317
마감	-9.72368
▁현대건설	-9.72391
▁현실화	-9.72429
▁협업	-9.72483
▁많은	-9.72502
▁은성수	-9.72546
년전	-9.72752
▁일정	-9.72755
▁기각	-9.72776
▁정치권	-9.72844
력	-9.72847
▁파기환송심	-9.72873
▁대구시	-9.72948
▁증권사	-9.7298
▁긴장	-9.72997
▁IT	-9.73013
▁그룹	-9.73033
▁되나	-9.7304
인가	-9.73151
장관	-9.73261
▁근로자	-9.73298
▁반	-9.73299
▁보는	-9.73447
▁잘못	-9.73448
▁사이	-9.7348
▁넘게	-9.73492
▁창출	-9.73498
▁34	-9.73508
▁쓰고	-9.73535
▁주민들	-9.73582
▁낙태	-9.73582
집회	-9.73598
나도	-9.73666
바이오	-9.73753
없이	-9.73779
▁누가	-9.73935
▁엄마	-9.74015
▁시동	-9.74022
...20	-9.74098
▁진영	-9.74142
...6	-9.74219
▁류호정	-9.74296
24	-9.74305
▁불구속	-9.74341
내가	-9.74409
▁국감장	-9.74431
▁혐의로	-9.74575
...9	-9.74614
▁꿈	-9.74697
10	-9.74746
▁당선	-9.74759
▁매장	-9.7478
▁회사	-9.74838
▁고려	-9.74849
▁G	-9.74869
▁보이스피싱	-9.74942
▁곧	-9.74944
▁한은	-9.74987
철	-9.75008
▁보유	-9.75145
▁창립	-9.75211
▁외	-9.75335
▁원주	-9.75336
우	-9.75337
▁보고서	-9.75362
▁시즌	-9.75394
물	-9.75582
▁운항	-9.75609
실	-9.75672
▁해뜨락요양병원	-9.75676
▁때문에	-9.75683
▁김근식	-9.7573
▁기업인	-9.75841
만건	-9.75877
▁거주	-9.75881
▁재확산에	-9.75924
해외유입	-9.75941
▁마친	-9.75969
▁IPO	-9.75987
▁줄줄이	-9.76025
세종	-9.76088
▁추석연휴	-9.76094
▁보급	-9.76114
저	-9.76274
데	-9.76281
할까	-9.76291
▁분쟁	-9.763
▁청주	-9.76339
▁스마트폰	-9.76483
마을	-9.76504
▁제주도	-9.76542
청소년	-9.766
마켓	-9.76618
▁유감	-9.76647
▁빚	-9.76647
▁땐	-9.76693
▁검출	-9.76775
▁교육부	-9.76793
▁개통	-9.76838
▁과정	-9.76873
총장	-9.76879
▁받는다	-9.76924
▁교황	-9.76945
▁두자릿수	-9.76972
▁e	-9.76976
▁콘서트	-9.77025
▁인	-9.7707
▁게이트	-9.77094
민	-9.77162
개천절	-9.77174
▁전주	-9.77187
편	-9.77188
▁참수	-9.7719
한국판	-9.77226
▁불참	-9.77255
재활병원	-9.77296
▁단계	-9.77396
▁대기업	-9.77399
▁자금	-9.77435
▁편의점	-9.77512
▁동원	-9.77538
▁글	-9.77577
▁미만	-9.7762
▁인력	-9.77633
인명피해	-9.77678
카드	-9.77705
▁80%	-9.7774
심도	-9.77742
▁운행	-9.77874
▁경찰관	-9.77878
▁만들어	-9.7788
▁술	-9.77901
▁징역형	-9.77962
▁빅데이터	-9.77962
▁지연	-9.77991
▁금리	-9.77999
5000	-9.78148
▁발언에	-9.78211
▁소방관	-9.78239
프랑스	-9.78282
교사	-9.78326
▁초등생	-9.7833
▁아기	-9.785
▁관계자	-9.78615
사고	-9.78652
▁사모펀드	-9.787
호선	-9.78729
큰	-9.78786
▁나	-9.78922
▁인재	-9.78944
▁무슨	-9.78956
해도	-9.78957
서도	-9.78979
▁학대	-9.78998
▁평화	-9.79001
억달러	-9.79187
...7	-9.79187
▁최고치	-9.79375
해경	-9.79381
▁곳	-9.79402
▁안정	-9.79405
▁입건	-9.79429
▁철회	-9.79449
뉴	-9.79465
▁불가	-9.795
▁아내	-9.79521
더니	-9.7955
▁테슬라	-9.79642
▁모색	-9.79662
▁이근	-9.79672
▁도약	-9.79686
▁얼굴	-9.79752
마켓인사이트	-9.79769
▁나왔다	-9.7978
전년비	-9.79808
▁경진대회	-9.799
▁듣는	-9.79944
한동훈	-9.79997
▁바이오	-9.80041
▁나이지리아	-9.80126
▁내일부터	-9.8014
▁70%	-9.80164
▁정권	-9.80181
톤	-9.80182
▁했다	-9.80203
▁착공	-9.80276
▁연말까지	-9.80322
▁근무	-9.80341
광화문	-9.80511
▁렘데시비르	-9.80644
구글	-9.80691
▁방미	-9.80737
▁관광	-9.80758
사건	-9.80816
▁세상	-9.80885
▁서훈	-9.80919
▁어선	-9.80941
▁동반	-9.80948
수출	-9.80954
유	-9.81023
건강	-9.81038
▁규탄	-9.81103
▁이송	-9.81128
▁정총리	-9.81162
경기도	-9.8122
▁방해	-9.81226
▁누구	-9.81226
코스피	-9.81259
▁페스티벌	-9.81263
▁입법	-9.81349
▁된다	-9.81374
"...'	-9.81463
▁법안	-9.81487
▁성남시	-9.8153
CJ	-9.81577
친	-9.81643
▁증가세	-9.81784
▁파악	-9.81842
▁조성길	-9.81854
▁제시	-9.81905
▁충격	-9.81915
사회적	-9.81936
전북	-9.81957
코스닥	-9.82029
▁있나	-9.82031
차벽	-9.82069
▁지배구조	-9.82105
▁들고	-9.82108
하겠다	-9.82211
▁간다	-9.82337
▁농가	-9.82347
▁발동	-9.82394
▁수원시	-9.82433
▁일주일	-9.82446
▁종료	-9.82462
▁너무	-9.82544
▁선물	-9.82552
▁김홍걸	-9.82553
주식	-9.82637
▁전기	-9.82659
▁방침	-9.82677
▁강남구	-9.82678
▁거짓말	-9.82735
▁인텔	-9.82814
재계	-9.82894
"···	-9.82902
▁지원사업	-9.82931
▁패션	-9.82947
▁공공	-9.8295
▁현대차그룹	-9.82969
▁결제	-9.8305
▁생활	-9.83152
▁천안	-9.83225
친환경	-9.83239
▁중기부	-9.83298
▁규명	-9.8333
▁유죄	-9.83334
▁어렵다	-9.83336
공정경제	-9.83336
▁민간	-9.83519
▁개혁	-9.83539
▁새벽	-9.83541
▁배	-9.83639
▁마을	-9.83697
▁박원순	-9.83705
노조	-9.83709
▁분사	-9.83765
시민	-9.83784
EU	-9.8382
일부	-9.83826
▁고용	-9.83978
▁올린	-9.84026
▁걸린	-9.84048
▁코로나에	-9.84164
▁39	-9.84261
땐	-9.8427
▁전수검사	-9.84314
▁세자릿수	-9.84403
▁자산	-9.84421
▁보험	-9.84433
무	-9.84468
▁선도	-9.84484
▁일반	-9.84504
낮	-9.84555
▁조	-9.84584
▁등장한	-9.84614
▁물량	-9.84666
▁출근	-9.84679
▁2020]	-9.84776
▁맞손	-9.84779
▁격려	-9.84799
방	-9.84816
▁전개	-9.84866
▁수소	-9.84931
주기	-9.85029
▁남	-9.85066
▁학생들	-9.8511
의대생	-9.85172
▁실험	-9.8521
▁농협	-9.85225
활동	-9.85309
▁최악	-9.85392
▁남양주	-9.85505
▁임박	-9.85584
월부터	-9.85626
▁땅	-9.85642
▁대회	-9.85675
▁단지	-9.85781
▁월북	-9.85805
▁등교수업	-9.85811
▁못한	-9.85903
▁제도	-9.86032
팀	-9.86071
명대	-9.86195
▁용인시	-9.86246
▁단체	-9.86262
▁비율	-9.86273
▁신세계	-9.86381
▁여수	-9.86548
▁여권	-9.86556
▁면제	-9.86569
▁상승세	-9.86585
▁반응	-9.86622
▁자제	-9.86647
▁보니	-9.86762
▁구름	-9.86764
월북	-9.86864
▁고성	-9.86906
▁지원금	-9.86933
▁과세	-9.87007
날	-9.87042
▁한글	-9.87091
▁선원	-9.8716
상품	-9.87356
조사	-9.8736
▁기탁	-9.87395
▁모습	-9.87414
▁초청	-9.87425
▁유입	-9.8744
▁성료	-9.87477
다우	-9.87556
으면	-9.87611
▁중구	-9.87662
▁복구	-9.87682
아이	-9.87752
▁인사말	-9.87901
포럼	-9.87921
베를린	-9.87921
▁법사위	-9.87926
▁바람	-9.87939
조성길	-9.88019
▁수능	-9.88032
▁감독	-9.88054
▁수상자	-9.88088
▁어르신	-9.88142
박	-9.88225
▁부정	-9.88327
▁종전선언	-9.88346
▁차세대	-9.88353
▁발	-9.88369
▁폭발	-9.88401
”(	-9.88409
▁기증	-9.8846
▁73	-9.88481
▁장제원	-9.88579
▁막판	-9.88744
정보	-9.88756
▁강	-9.88774
▁다음달	-9.88833
사실	-9.88834
▁출소	-9.88843
▁이태원	-9.88874
▁의결	-9.88881
코	-9.88918
▁할머니	-9.88948
▁입원	-9.8895
▁한계	-9.89029
▁챌린지	-9.89039
▁터키	-9.89085
▁취약계층	-9.89107
▁승용차	-9.89234
▁77	-9.89315
▁베를린	-9.89382
만대	-9.89408
네	-9.89408
▁배출	-9.89454
▁앞서	-9.89477
▁대표이사	-9.89518
▁살	-9.89584
▁어떤	-9.89594
▁소득	-9.89603
른	-9.89606
표	-9.89615
▁해리스	-9.89628
▁열풍	-9.89664
충북	-9.89688
▁제정	-9.89745
▁'3	-9.89745
▁협박	-9.89814
▁포스코건설	-9.89818
▁단풍	-9.89819
받는	-9.89873
월까지	-9.89894
▁반드시	-9.90022
▁100%	-9.90034
▁시인	-9.90046
대비	-9.90128
▁임직원	-9.90146
미래	-9.90205
▁살인	-9.9022
▁뜬다	-9.9025
▁배제	-9.90322
▁사회	-9.90437
▁솔루션	-9.9055
낙태죄	-9.9061
▁검증	-9.90674
포스트	-9.90699
▁60%	-9.90753
▁작품	-9.90754
▁유튜버	-9.90801
▁신속	-9.90834
▁개입	-9.90856
▁확장	-9.91003
혁신	-9.91024
▁저격	-9.91034
▁63	-9.91037
▁외교	-9.91089
▁화천	-9.91095
▁일당	-9.91149
▁뜻	-9.91175
공장	-9.9121
▁방역당국	-9.91218
▁패키지	-9.91267
▁경제성	-9.91308
▁추천위원	-9.91318
▁해임	-9.91346
▁통일부	-9.9139
▁에너지	-9.91395
▁67	-9.91437
되면	-9.91483
▁영입	-9.91506
...8	-9.91536
↑...	-9.91549
▁입	-9.91559
▁48	-9.91569
▁트럼프에	-9.91635
▁말고	-9.91647
▁과제	-9.91663
▁종사자	-9.91717
진중권	-9.91738
▁가결	-9.9174
분야	-9.91761
▁120	-9.91764
▁횡령	-9.91827
백악관	-9.91878
車	-9.91889
▁장하성	-9.91975
▁아이폰	-9.92041
남	-9.92079
▁내부	-9.92204
▁재활병원	-9.92277
▁김홍영	-9.92334
▁하나은행	-9.92343
▁남부지검장	-9.9237
▁4000	-9.92383
▁최우수상	-9.92425
▁시위대	-9.92431
개교	-9.92488
▁부천	-9.92528
▁훈련	-9.92539
▁갈	-9.92601
▁때문	-9.9262
▁산업부	-9.92674
택배	-9.92712
돼	-9.92784
▁지	-9.92788
▁비용	-9.92799
▁조두순	-9.92818
▁보수단체	-9.9289
상온	-9.92902
정의선	-9.92908
▁깜짝	-9.93062
▁한수원	-9.93123
▁강한	-9.93126
▁복원	-9.93146
兆	-9.93152
▁출입	-9.93158
▁회동	-9.93186
공공기관	-9.93208
▁의대생	-9.93296
▁휴가	-9.93301
▁감축	-9.93315
▁답장	-9.93325
▁농산물	-9.93347
코로나로	-9.93461
▁수원	-9.9347
▁건의	-9.93582
▁관광지	-9.93683
전쟁	-9.9375
▁연말	-9.93781
▁자리	-9.93817
▁김남국	-9.93885
▁시리즈	-9.93958
▁합동	-9.94043
단체	-9.94056
인사	-9.94114
▁않은	-9.94144
▁부	-9.94153
▁언제	-9.94179
▁매우	-9.942
▁전세계	-9.94209
▁약세	-9.94238
▁부적절	-9.94298
최근	-9.94398
▁조례	-9.9445
▁공모주	-9.94456
▁정당	-9.94605
▁숨지게	-9.94646
▁대전서	-9.94689
▁파견	-9.94707
▁비리	-9.94753
▁악화	-9.94776
▁충남도	-9.94778
▁차이	-9.94844
▁입주	-9.94877
▁부당	-9.94911
▁숲	-9.9492
▁시사	-9.94932
▁삶	-9.94952
▁현안	-9.9507
▁세종시	-9.95153
은행	-9.95197
청	-9.95216
▁지방	-9.95232
욱	-9.9524
▁선호도	-9.95406
▁아시아	-9.95458
▁삼성물산	-9.95497
▁폐기물	-9.95497
▁보상	-9.95536
▁쓰레기	-9.95717
▁분할	-9.9579
▁육군	-9.95886
▁이미	-9.95953
▁바꾼	-9.96011
▁오른	-9.96027
▁함께하는	-9.96099
▁전세난	-9.96131
▁기사	-9.9614
▁정비	-9.96155
▁유일	-9.96169
긴	-9.96175
▁경주	-9.96203
▁유충	-9.96241
강릉	-9.96266
공원	-9.96333
▁꼭	-9.96334
말	-9.96337
▁대체	-9.96351
질	-9.96352
▁초과	-9.96364
신규	-9.96396
▁비위	-9.96417
▁바로	-9.96447
▁신입생	-9.96561
▁매매	-9.96616
▁정신	-9.96636
▁CCTV	-9.96653
▁사흘째	-9.96663
▁한달	-9.96666
▁모빌리티	-9.96719
▁한국판	-9.96721
박사방	-9.96847
▁표현	-9.96855
문제	-9.9692
▁진단	-9.96941
오프라인	-9.96965
지난해	-9.96969
▁사의	-9.97042
사망자	-9.97059
마리	-9.97079
▁연계	-9.97096
▁펜스	-9.97198
▁투자자	-9.97224
사상	-9.97337
▁국방장관	-9.97353
▁보장	-9.97435
▁참가자	-9.97454
▁파업	-9.97456
▁비중	-9.97492
▁애플	-9.97628
LEA	-9.97733
▁재응시	-9.97755
▁바	-9.9778
▁2022	-9.97785
▁지하철	-9.97806
▁의혹에	-9.9791
▁아베	-9.97928
판매	-9.97934
▁리콜	-9.97945
감염경로	-9.97989
▁온다	-9.97991
▁택배노동자	-9.98067
▁실시간	-9.98067
▁일대	-9.98087
명이	-9.98131
▁협조	-9.98179
▁5·18	-9.98227
▁정황	-9.9824
최고	-9.98241
▁열린	-9.98311
▁회수	-9.98353
▁높은	-9.98472
평가	-9.98684
▁붕괴	-9.9869
량	-9.98707
▁행렬	-9.98718
▁순이익	-9.98767
▁의지	-9.98776
▁춘천	-9.98835
▁패소	-9.98899
▁상속세	-9.9891
▁만남	-9.98925
▁수용	-9.99
▁자택	-9.99017
▁교도소	-9.9914
원주	-9.99154
▁고조	-9.9919
▁출국	-9.99288
▁신한은행	-9.99293
▁운동	-9.99295
▁질문에	-9.99337
적인	-9.9934
▁61	-9.99399
▁북구	-9.99451
▁절차	-9.99573
▁대법관	-9.99617
류	-9.9962
▁바다	-9.99621
▁설명회	-9.99676
▁온택트	-9.99761
▁↑	-9.99781
▁주재	-9.99856
▁외출	-9.99879
▁부지	-9.99901
▁무료접종	-9.99922
▁GDP	-9.9993
▁국회의원	-9.99955
▁잃	-9.99965
▁지휘	-10.0007
▁가을철	-10.0014
▁겨울	-10.002
법무부	-10.002
▁떨어져	-10.0032
▁인천공항	-10.0035
▁통한	-10.004
단계로	-10.0045
▁도주	-10.0049
예산	-10.0053
▁행정	-10.0062
에너지	-10.0066
제도	-10.007
동정	-10.0074
▁부하	-10.0075
▁중고차	-10.0077
▁새희망자금	-10.0111
▁중상	-10.0118
개인	-10.0119
▁47	-10.0134
▁충전	-10.0137
이면	-10.0139
▁상향	-10.0139
▁연결	-10.0144
대검	-10.0145
▁필수	-10.0145
▁허위	-10.0148
▁직격탄	-10.0151
▁하이트진로	-10.0151
소상공인	-10.0153
▁공간	-10.0153
▁부과	-10.0158
없는	-10.0163
▁동구	-10.0167
▁인공지능	-10.0172
지수	-10.0173
▁오바마	-10.0174
후쿠시마	-10.0175
▁84	-10.0182
▁소	-10.0191
▁위촉	-10.0192
▁비즈니스	-10.0197
▁즐기는	-10.0199
강	-10.0207
규제	-10.0208
▁뉴욕	-10.0213
▁투약	-10.0215
▁지적에	-10.0215
▁부통령	-10.0218
▁탄생	-10.0221
▁신용대출	-10.0223
▁행보	-10.0224
▁38	-10.0226
▁결혼	-10.0228
맞손	-10.0229
▁아버지	-10.0229
주말	-10.0232
▁강릉	-10.0232
▁소개	-10.0235
14	-10.0237
▁분노	-10.024
▁달리	-10.0255
근	-10.026
▁멧돼지	-10.0263
▁도움	-10.0264
▁친구	-10.0269
▁완전	-10.0271
부양책	-10.0272
▁접종자	-10.0273
갑질	-10.0282
모두	-10.0285
규	-10.0286
▁찬성	-10.0288
열	-10.0288
▁증상	-10.0289
라면	-10.029
▁법적	-10.0298
▁노후	-10.0298
정권	-10.0299
종목	-10.0302
개월째	-10.0304
지자체	-10.0306
▁78	-10.0308
▁차질	-10.0311
▁신한카드	-10.0315
▁기여	-10.0319
▁답하	-10.032
▁그린뉴딜	-10.032
▁일일	-10.0328
▁ASF	-10.0345
▁생중계	-10.0358
▁여	-10.0358
▁이해	-10.0361
▁무산	-10.0363
향	-10.0365
▁한반도	-10.0368
기간	-10.0368
▁조롱	-10.0372
▁블루	-10.0377
▁상담	-10.038
▁정치인	-10.0381
▁주변	-10.0382
▁車	-10.0386
학년도	-10.039
▁주문	-10.039
▁트윗	-10.039
▁뿐	-10.0392
내달	-10.0392
▁개	-10.0394
기아차	-10.0395
▁반격	-10.0399
▁보류	-10.0402
레이더	-10.041
▁임시회	-10.0414
하	-10.0415
▁축하	-10.0415
▁사랑	-10.0416
호점	-10.0417
▁신뢰	-10.0428
▁"3	-10.0431
▁환경부	-10.0431
▁플로리다	-10.0431
R	-10.0435
▁벌써	-10.0436
▁작업	-10.0437
▁수혜	-10.0446
불	-10.0449
금태섭	-10.045
▁윤	-10.0455
▁의협	-10.0461
▁당일	-10.0464
이냐	-10.0464
▁됐다	-10.0465
▁요건	-10.0466
▁크게	-10.0471
▁우리금융	-10.0476
▁그대로	-10.0477
▁최우수	-10.0483
▁성	-10.0487
▁해킹	-10.0487
▁안전성	-10.0495
관계	-10.0505
기준	-10.0506
▁근거	-10.0511
▁우승	-10.0517
▁준	-10.052
▁국세청	-10.0521
▁44	-10.0522
▁방식	-10.0526
▁서울서	-10.0529
▁설전	-10.0533
▁생존	-10.0541
▁탄	-10.0542
▁태영호	-10.0543
▁IMF	-10.0549
▁몸수색	-10.0551
▁옛	-10.0558
▁추적	-10.056
장비	-10.0561
▁장기화	-10.0564
▁뚝	-10.0572
시그널	-10.0573
▁분	-10.0573
▁관악구	-10.0577
위기	-10.0577
▁리더십	-10.0579
드	-10.0581
▁재산	-10.0581
▁그만	-10.0583
▁머리	-10.0585
?..."	-10.0587
▁서구	-10.0588
▁수거	-10.059
▁단독	-10.0592
▁철저히	-10.0595
▁제대로	-10.0596
▁이웃	-10.0597
▁방문한	-10.0597
일자리	-10.0601
▁SRC	-10.0601
▁받고	-10.0602
▁배럿	-10.0603
▁죽음	-10.0608
vs	-10.0621
▁민원	-10.0624
▁식당	-10.0628
▁금	-10.0629
톡	-10.0633
▁항공	-10.0633
▁유승준	-10.0634
▁그쳐	-10.0635
▁사라진	-10.0645
▁화환	-10.0648
공사	-10.0651
▁직원들	-10.0651
▁다양	-10.0658
▁안산시	-10.0658
▁홈플러스	-10.0658
협회	-10.0659
▁아프리카	-10.0662
▁B	-10.0674
한반도	-10.0674
▁동결	-10.0678
▁과시	-10.0684
▁출마	-10.0686
네트웍스	-10.0688
▁정읍	-10.0688
▁노벨	-10.0689
확진	-10.0689
▁6·25	-10.069
▁동기	-10.0695
▁병역특례	-10.0707
계획	-10.0713
총리	-10.0714
▁BMW	-10.0729
▁금융위	-10.0734
▁입증	-10.0749
논란	-10.0758
▁더불어민주당	-10.0759
▁필리핀	-10.076
▁800	-10.076
]‘	-10.0764
▁진단키트	-10.0773
▁조직	-10.0779
▁발령	-10.0783
▁수여	-10.0789
▁배치	-10.0792
인도	-10.0793
대출	-10.0793
▁진정	-10.0802
▁않을	-10.0803
fn	-10.0803
V	-10.0808
▁한일	-10.0808
▁택시기사	-10.0808
태	-10.0809
▁보낸	-10.0811
억대	-10.0814
▁남구	-10.0819
실적	-10.0824
피해자	-10.0831
▁가는	-10.0833
민주	-10.0839
차이나	-10.0844
▁사는	-10.0857
▁운전	-10.0861
▁하향	-10.0866
생	-10.087
뉴딜	-10.0893
위는	-10.0897
▁마약	-10.0904
▁이주열	-10.0908
김	-10.0912
▁64	-10.0917
러시아	-10.0919
▁목	-10.092
▁봉사	-10.092
▁최선	-10.0923
▁항소심	-10.0923
T	-10.0924
▁양도세	-10.093
따상	-10.0931
품	-10.0931
▁격돌	-10.0931
▁45	-10.0935
“	-10.0937
창	-10.0947
▁앞장	-10.0947
▁화웨이	-10.0952
위원회	-10.0953
▁연간	-10.0959
▁컨설팅	-10.0968
▁밖	-10.0968
...12	-10.0976
▁수립	-10.098
구역	-10.0983
▁3%	-10.0983
▁학원	-10.0985
▁차별	-10.0985
▁정진웅	-10.0985
▁관광객	-10.0986
▁술접대	-10.0988
▁여론조사	-10.099
▁코나	-10.0997
▁가능한	-10.0999
▁LNG	-10.1005
▁로또	-10.1007
▁안내	-10.1008
▁초등학교	-10.101
▁대한항공	-10.1013
▁귀국	-10.1014
▁현금	-10.1014
▁김해시	-10.1017
의회	-10.102
▁91	-10.1021
▁임신	-10.1021
▁입점	-10.1024
”...‘	-10.1024
▁찾는	-10.1024
▁고장	-10.1026
▁CU	-10.103
▁확진에	-10.103
▁수익률	-10.1033
▁연일	-10.1039
▁VS	-10.1042
소비	-10.1047
유족	-10.1047
▁사	-10.1048
▁박범계	-10.1057
시대	-10.1058
▁공감	-10.1063
F	-10.1067
▁선포	-10.1067
부문	-10.107
▁공세	-10.107
▁몸	-10.1072
듯	-10.1073
▁수돗물	-10.1075
▁佛	-10.1081
번가	-10.1084
언론	-10.1084
▁연관성	-10.1084
탈원전	-10.1086
▁않다	-10.1087
▁유치원	-10.1091
감	-10.1094
주목	-10.11
▁받았다	-10.1101
여기는	-10.1109
▁폭탄	-10.111
▁전화	-10.111
▁보안	-10.1113
▁43	-10.1123
▁될까	-10.1134
반	-10.1135
▁현직	-10.1136
피살	-10.1139
▁충북도	-10.1145
깜짝	-10.1146
모든	-10.1148
행사	-10.1149
▁라이브	-10.1154
▁쟁점	-10.1155
▁거론	-10.1156
▁등에	-10.1162
▁만난다	-10.1163
▁아파트값	-10.1165
학년	-10.1168
▁쌍용차	-10.1169
란	-10.1173
▁성폭력	-10.1175
▁화장실	-10.1179
트	-10.1188
매출	-10.119
.."	-10.1193
▁공군	-10.1204
스타트업	-10.1207
여의도	-10.1207
▁어워드	-10.1217
▁도착	-10.1219
▁총재	-10.1225
▁양산	-10.1229
▁재난지원금	-10.1234
생활	-10.1237
▁경험	-10.1237
▁62	-10.1237
▁임	-10.1238
랑	-10.1242
▁환영	-10.1248
'(	-10.1255
▁Q	-10.1256
▁싱가포르	-10.1256
▁변신	-10.1267
공	-10.1272
kg	-10.1273
▁전수조사	-10.1279
에서도	-10.1279
|	-10.1279
▁지침	-10.1283
▁향상	-10.1294
▁자율주행	-10.1296
▁전직	-10.1302
▁가	-10.1306
▁심화	-10.1307
▁소리	-10.1309
순위	-10.1319
콘텐츠	-10.1322
개사	-10.1342
▁구속영장	-10.1346
▁향하는	-10.1348
▁뇌물	-10.135
▁66	-10.1355
▁견제	-10.1359
▁기능	-10.1363
▁수술	-10.1375
연휴	-10.1378
이노	-10.1379
H	-10.1389
된다	-10.1396
▁진료	-10.1396
▁반려동물	-10.1404
▁기재부	-10.1406
▁양천구	-10.1411
▁2%	-10.1415
천억원	-10.1427
▁지난	-10.1428
▁대부분	-10.1429
의사	-10.1436
NH	-10.1436
대회	-10.1441
▁와인	-10.1443
▁인도네시아	-10.1446
▁대구서	-10.145
재정준칙	-10.1452
▁대면	-10.1452
▁찾는다	-10.1454
▁파주시	-10.1455
▁암	-10.1456
고객	-10.1456
▁넘는	-10.1461
사회	-10.1463
▁골프	-10.1468
▁귀경길	-10.1477
백	-10.1484
▁본사	-10.1486
원전	-10.1488
▁유행	-10.1491
▁도시재생	-10.1497
▁촉각	-10.1501
▁인천서	-10.1502
외교부	-10.1505
▁코리아	-10.1506
▁부작용	-10.151
홈쇼핑	-10.151
공정	-10.1514
軍	-10.1514
했지만	-10.1514
Hot	-10.1516
▁포항시	-10.1516
▁의료	-10.1517
▁권리	-10.1517
▁유포	-10.1524
병	-10.1526
▁발급	-10.1527
▁정상화	-10.1532
도시	-10.1534
감사	-10.1536
▁최	-10.1537
▁릴레이	-10.154
▁정청래	-10.154
▁맞고	-10.154
반대	-10.1544
▁두번째	-10.1551
▁아	-10.1551
▁스타벅스	-10.1552
인력	-10.1554
▁직장인	-10.1562
▁한동훈	-10.1575
렘데시비르	-10.1576
ESG	-10.1577
▁114	-10.1579
▁데이	-10.1581
▁학부모	-10.1585
▁워크숍	-10.1586
피해	-10.1589
▁일상	-10.1593
▁의식	-10.1604
▁막은	-10.1604
해진	-10.1606
▁공인중개사	-10.1609
▁재수감	-10.1611
▁59	-10.1612
치킨	-10.1614
▁집유	-10.1614
명째	-10.1616
▁진실	-10.1633
▁42	-10.1634
▁C	-10.1638
청와대	-10.164
▁내정	-10.164
▁선수	-10.1641
▁카카오	-10.1646
다음	-10.1649
보험	-10.1649
▁예약	-10.1649
노	-10.1652
업무	-10.1653
!"	-10.1657
▁특강	-10.166
춘천	-10.1661
▁한샘	-10.1668
개발	-10.1669
`...	-10.1669
▁미군	-10.167
▁사람들	-10.1676
▁88	-10.1678
오후	-10.1684
▁미국행	-10.1684
···"	-10.1686
▁시신	-10.1692
L	-10.1697
▁배당	-10.1711
▁명령	-10.1712
▁무시	-10.1719
▁김학의	-10.1724
▁취업자	-10.1728
▁카페	-10.1732
N	-10.1735
▁행안부	-10.1739
감염	-10.175
▁검사들	-10.1755
▁주차장	-10.1762
상온노출	-10.1764
텔레콤	-10.1765
▁걸려	-10.177
▁긴급생계지원	-10.1771
재산세	-10.1774
단지	-10.1775
평균	-10.1779
▁우수기업	-10.178
▁위법	-10.178
당국	-10.178
베트남	-10.1783
▁장애	-10.1788
▁셀트리온	-10.1794
▁하자	-10.18
조두순	-10.1801
노동법	-10.1801
희	-10.1803
법인	-10.1824
▁의무	-10.1826
재인산성	-10.1827
▁하늘	-10.1832
▁들어서	-10.1832
▁막는다	-10.1833
▁MBN	-10.1833
▁통보	-10.184
▁해법	-10.1841
▁관람	-10.1842
▁불발	-10.1844
주택자	-10.1846
▁행위	-10.185
▁산다	-10.1853
▁중진공	-10.1857
▁주한	-10.1859
▁방	-10.1861
500	-10.1861
▁110	-10.1863
▁불확실성	-10.1865
▁경찰청장	-10.1869
▁이렇게	-10.1871
▁경합주	-10.1872
▁낸	-10.1876
▁노	-10.1881
▁폴란드	-10.1887
▁PC	-10.1888
까	-10.1891
▁따른	-10.1892
▁전북도	-10.1893
▁치매	-10.1896
▁37	-10.1907
▁면세점	-10.1912
▁성윤모	-10.1913
▁지진	-10.1913
▁양주	-10.1914
▁69	-10.192
▁맛	-10.1923
▁국장	-10.1926
▁앞으로	-10.1929
▁특수	-10.193
▁모	-10.1947
▁119	-10.1952
계	-10.1955
行	-10.1956
重	-10.1956
박근혜	-10.1959
▁인프라	-10.1967
▁대위	-10.1968
회의	-10.1968
▁말한다	-10.198
▁동료	-10.1981
▁'5	-10.1982
▁폭증	-10.1991
▁보수	-10.1991
▁초등	-10.1991
▁분위기	-10.1997
▁산발적	-10.1998
▁소규모	-10.1998
▁극단적	-10.1999
낸	-10.2005
도로	-10.2005
대학	-10.2009
▁장병	-10.2009
▁F	-10.201
▁고의	-10.201
음	-10.2014
▁매수	-10.2016
평	-10.2017
▁표결	-10.2022
▁원칙	-10.2022
▁57	-10.2023
모	-10.2026
▁배상	-10.2029
▁조명	-10.2033
▁상당	-10.2036
▁병무청장	-10.2045
▁흑인	-10.2047
▁화물차	-10.2055
개소	-10.2058
▁국적	-10.2061
▁부진	-10.2062
▁시그니처	-10.2062
▁해수부	-10.2066
▁김용민	-10.2074
매	-10.2077
▁타결	-10.2087
▁폐업	-10.2087
▁여의도	-10.209
▁신입	-10.2092
▁어쩌나	-10.2094
▁좀	-10.2095
▁윤미향	-10.2101
30	-10.2102
▁남은	-10.2104
환	-10.2117
버스	-10.2121
▁팬데믹	-10.2127
▁복지	-10.2129
▁외교관	-10.2129
▁개미	-10.2131
되나	-10.2132
▁끝내	-10.2137
▁목적	-10.2145
▁파우치	-10.2149
술	-10.215
▁전격	-10.2156
▁컨퍼런스	-10.2156
▁비행	-10.2158
▁캠프	-10.2158
▁세입자	-10.2162
이상	-10.2177
▁우려에	-10.2179
들의	-10.218
▁러	-10.2183
▁정식	-10.2183
▁한번	-10.2183
▁야스쿠니	-10.2186
▁이래	-10.2192
이제	-10.2196
▁고통	-10.2198
▁부품	-10.22
▁사살	-10.2204
▁최태원	-10.2205
▁남긴	-10.2213
▁불편	-10.2218
▁어디	-10.2219
▁안심	-10.2219
▁기획전	-10.222
제품	-10.2225
▁현	-10.2228
보수	-10.2232
남편	-10.224
▁박순철	-10.2243
로운	-10.2251
▁5%	-10.2251
기자	-10.2259
스코	-10.2268
▁않겠다	-10.2282
∼	-10.2282
제일제당	-10.2283
▁후보자	-10.2283
카	-10.2285
▁감시	-10.2286
▁준수	-10.2289
▁아빠	-10.2295
▁덜	-10.2297
▁유력	-10.2297
▁방법	-10.2297
키로	-10.2302
▁후폭풍	-10.2307
▁검색	-10.231
거래일	-10.2321
...30	-10.2324
▁계열사	-10.2328
했나	-10.2329
중소기업	-10.233
거리	-10.2331
회장	-10.2332
▁키워	-10.2333
▁OECD	-10.2338
▁채널	-10.2339
명에	-10.2344
▁KBS	-10.2356
▁항체치료제	-10.2359
오전	-10.2362
▁실천	-10.2364
▁국산화	-10.2367
IR	-10.2368
▁롯데마트	-10.2371
▁SUV	-10.2376
▁시범	-10.2385
▁보내	-10.2398
▁차원	-10.2399
▁독도	-10.241
▁트럭	-10.2417
▁멕시코	-10.2417
▁투자유치	-10.2423
▁안개	-10.2425
대체로	-10.2426
비대위	-10.2426
▁경총	-10.243
전기차	-10.243
▁규정	-10.2434
▁플러스	-10.2435
천원	-10.2436
▁n	-10.2441
나는	-10.2441
▁예측	-10.2443
▁오늘의	-10.2444
▁재선	-10.2447
▁책	-10.2453
▁택시	-10.2454
▁화장품	-10.2456
▁석방	-10.2459
료	-10.2462
▁ICT	-10.2475
▁중대본	-10.2484
장애인	-10.2485
▁있을까	-10.2485
▁나흘	-10.2486
집값	-10.2487
▁결선	-10.249
대사	-10.2491
▁재발	-10.2493
집콕	-10.2493
▁가맹점	-10.2494
▁자진	-10.2496
▁김해	-10.2496
▁타	-10.2496
농협은행	-10.2497
년형	-10.2498
여당	-10.2502
▁달해	-10.2502
▁앞에서	-10.2504
▁스페인	-10.2505
▁망명	-10.2509
▁54	-10.2509
▁임대료	-10.2512
글	-10.2512
이틀	-10.2515
▁합격	-10.2518
▁확	-10.2522
IT	-10.2539
▁수확	-10.2547
▁야권	-10.2549
▁대기	-10.2549
▁집에서	-10.2551
▁빼고	-10.2556
▁우수사례	-10.2557
▁군산	-10.2557
▁벤츠	-10.2558
▁학원강사	-10.256
▁사각지대	-10.2566
▁특정	-10.2568
▁법인	-10.2568
▁양향자	-10.2568
▁삼성그룹	-10.2571
다른	-10.2571
▁전광훈	-10.2573
▁순익	-10.2575
▁대변인	-10.2583
:	-10.2585
▁중기	-10.2586
▁강제	-10.259
▁빠져	-10.2593
수록	-10.2598
문대통령	-10.2599
▁의미	-10.26
나경원	-10.2603
▁이사	-10.2608
▁돌봄	-10.2616
룰	-10.2619
덕	-10.2623
▁인터넷	-10.2625
▁명절	-10.2627
찬	-10.2628
▁한목소리	-10.2629
▁난동	-10.2629
▁총력전	-10.2629
▁노동	-10.2632
정은경	-10.2634
집단감염	-10.2634
들이	-10.2638
▁접촉자	-10.264
▁음주	-10.2646
▁해양	-10.2653
관광	-10.2654
▁밝혀	-10.2657
달	-10.266
▁빨리	-10.2664
▁타격	-10.2664
▁낙태죄	-10.2665
▁미사일	-10.2667
훈	-10.2668
▁아니라	-10.2669
▁정원	-10.267
망	-10.2673
▁철저	-10.2675
▁'0	-10.2677
계약	-10.2688
▁돕는	-10.2689
올댓	-10.269
▁박람회	-10.2694
▁전주시	-10.2694
인과성	-10.2697
▁축사	-10.27
국민은행	-10.2701
우려	-10.2702
▁현대제철	-10.2707
긴장	-10.2711
▁산재	-10.2717
▁이번	-10.2718
▁감염병	-10.272
▁지도부	-10.2723
▁장기	-10.2725
▁수사지휘	-10.2726
▁제주항공	-10.2728
본	-10.2733
▁TF	-10.2734
▁수정	-10.2738
▁LD	-10.2741
▁학습	-10.2745
호텔	-10.2748
▁직장	-10.2748
21	-10.2751
▁절실	-10.2759
쌀쌀한	-10.2763
▁확충	-10.2763
유승준	-10.2764
▁수장	-10.2766
하기	-10.2767
▁실현	-10.2767
▁신입사원	-10.2769
택배기사	-10.2772
▁작가	-10.2772
현직	-10.2774
▁박병석	-10.2777
▁인원	-10.2778
(2	-10.2779
▁송파구	-10.2782
▁돼지열병	-10.2783
▁공원	-10.279
▁만취	-10.279
▁실망	-10.2791
▁교회	-10.2796
▁화제	-10.2805
▁배포	-10.2807
▁노동법	-10.2807
책	-10.2811
▁비핵화	-10.2813
▁나흘째	-10.2815
주의	-10.282
▁올랐다	-10.2825
硏	-10.2829
Pick	-10.2829
▁신용등급	-10.283
▁운세	-10.283
▁트위터	-10.2833
▁연대	-10.2833
▁힐링	-10.2836
위해	-10.2836
▁이색	-10.2838
거래	-10.2839
지방	-10.2842
무죄	-10.2843
中企	-10.2845
빅데이터	-10.2845
지는	-10.2846
▁캐릭터	-10.2848
▁Mln	-10.2851
▁아마존	-10.2868
요양병원	-10.2871
원대	-10.2877
▁재확인	-10.288
▁커지는	-10.2881
▁혼란	-10.2884
한미	-10.2891
3000	-10.2898
▁공	-10.2901
국제	-10.2906
관련	-10.2908
▁고작	-10.291
임신	-10.2915
▁포스트	-10.2917
검찰총장	-10.2919
▁섬	-10.2923
▁열	-10.2932
행	-10.2932
GM	-10.2933
▁불안감	-10.2936
▁백	-10.2939
▁해명	-10.294
▁간호사	-10.2945
▁내용	-10.2946
업	-10.2951
▁별	-10.2967
▁기업들	-10.2971
▁경신	-10.2974
▁커져	-10.2974
▁이익	-10.2975
▁국무회의	-10.2975
▁문건	-10.2978
▁쌀	-10.298
▁이용섭	-10.2987
▁핵	-10.2989
▁비서실장	-10.299
마	-10.2999
선거	-10.3005
▁유승민	-10.301
▁회복세	-10.3012
▁불공정	-10.3012
11	-10.3015
▁왜곡	-10.3016
만장	-10.3026
▁국무부	-10.3028
▁임상시험	-10.3032
▁강사	-10.3037
▁여론	-10.3043
효과	-10.3045
▁돌아온	-10.3047
▁공채	-10.3049
▁롯데건설	-10.305
수소	-10.3053
에선	-10.3057
타	-10.3058
男	-10.3059
▁사무실	-10.3063
▁주한미군	-10.3068
로부터	-10.3069
▁국산	-10.3074
▁거제	-10.3077
비용	-10.3079
될까	-10.3083
▁요양시설	-10.3085
▁저지	-10.3093
클럽	-10.3099
했는데	-10.31
▁기업은행	-10.3101
▁통신	-10.3103
▁해외유입	-10.3117
▁요양원	-10.3117
▁주미대사	-10.3131
▁2025	-10.3132
됐다	-10.3133
아이폰	-10.3134
이자	-10.3135
▁하락세	-10.3137
▁청문회	-10.3138
▁초대형	-10.314
▁재정	-10.3144
▁유명	-10.3152
▁열차	-10.316
▁구제	-10.3161
▁만드는	-10.3164
▁이번주	-10.317
▁서해	-10.3173
현대	-10.3174
▁트렌드	-10.3175
▁불기소	-10.3177
▁기억	-10.3178
저축은행	-10.3182
영끌	-10.3182
公	-10.3186
▁스루	-10.3186
▁영결식	-10.319
▁절정	-10.3195
▁기준금리	-10.3203
▁조건	-10.3204
▁조화	-10.3205
국토부	-10.3207
▁점유율	-10.321
섭	-10.3211
▁ETF	-10.3213
▁지난달	-10.3219
▁노동당	-10.3219
▁멜라니아	-10.3221
▁독점	-10.3222
▁스포츠	-10.3223
모임	-10.3226
발전	-10.3227
▁포착	-10.3231
자동차	-10.3236
▁채권	-10.3241
▁행복	-10.3244
▁낸드	-10.3244
U	-10.3245
▁해고	-10.3247
▁개원	-10.3248
가장	-10.3248
▁노사	-10.325
▁접근	-10.3252
고교	-10.3253
▁골프장	-10.3253
▁화물	-10.3255
▁음식	-10.3258
분석	-10.326
▁대거	-10.326
▁시연	-10.3267
▁사랑의	-10.3267
▁공립	-10.3271
시킨	-10.3272
▁가전	-10.3273
15	-10.3278
▁아모레퍼시픽	-10.328
윤	-10.328
▁핼러윈데이	-10.3281
▁든	-10.3282
▁증거	-10.3285
▁감사원장	-10.3288
GS	-10.3288
파	-10.329
▁출장	-10.33
▁나서는	-10.3302
▁식품	-10.3305
▁안산	-10.3313
이란	-10.3315
바	-10.3327
▁승소	-10.3329
▁태도	-10.333
360	-10.3333
▁잡아라	-10.3334
▁강의	-10.3339
▁막	-10.3343
▁풍경	-10.3345
▁대림산업	-10.3345
▁낸다	-10.3346
17	-10.3347
▁리모델링	-10.3347
▁캠코	-10.3351
▁해상풍력	-10.3354
화재	-10.3356
▁빛	-10.3356
익	-10.3359
▁순천	-10.3363
▁대세	-10.3364
▁진짜	-10.3368
즈	-10.3371
▁집행	-10.3371
▁인물	-10.3372
▁금융당국	-10.3373
▁디지털교도소	-10.3375
경영	-10.3377
영화	-10.338
▁비정규직	-10.3389
▁몰라	-10.3405
▁공시가	-10.3407
▁마치고	-10.3408
▁긍정적	-10.3408
▁타계	-10.3409
▁체계	-10.3409
▁높인다	-10.341
▁좋다	-10.3411
▁"4	-10.3414
▁서프라이즈	-10.3414
▁DGB	-10.3417
▁연봉	-10.3421
▁침묵	-10.3424
▁동학개미	-10.3426
전작권	-10.3429
▁흥행	-10.343
▁접종후	-10.3432
▁전력	-10.3442
빚투	-10.3443
회사	-10.3451
▁입찰	-10.3469
▁주사	-10.3471
주가	-10.3474
▁배우	-10.3474
마저	-10.3476
리테일	-10.3476
▁전경련	-10.3484
▁확산세	-10.3486
주째	-10.3488
▁향한	-10.3492
▁부장검사	-10.3492
민간	-10.3494
▁논쟁	-10.3494
▁단축	-10.3501
▁질문	-10.3504
▁친형	-10.3507
▁임대주택	-10.3508
▁최강욱	-10.3512
▁찾기	-10.3526
▁철도	-10.3528
▁관련주	-10.3529
쇼핑	-10.353
▁휴대폰	-10.3535
13	-10.3556
▁악취	-10.3557
▁중인	-10.3565
▁수시	-10.3568
클릭	-10.357
▁순천시	-10.3573
디스플레이	-10.3573
▁키운다	-10.3573
a	-10.3575
▁만들	-10.3576
▁속속	-10.3581
세월호	-10.3582
시진핑	-10.3583
최악	-10.3584
▁무단	-10.3594
▁무면허	-10.3594
▁성관계	-10.3597
▁파리	-10.3602
▁체제	-10.3605
축제	-10.3605
안철수	-10.3609
자금	-10.3611
▁헌재	-10.3614
▁부른	-10.3626
▁Korea	-10.3629
▁무	-10.3634
▁25%	-10.3635
절차	-10.3636
▁이런	-10.3637
▁가속화	-10.3638
▁"1	-10.3638
▁전역	-10.3644
▁내수	-10.3644
대로	-10.3645
같은	-10.3646
국시	-10.3647
▁정수기	-10.3651
지금	-10.3653
▁몰린	-10.3653
▁사연	-10.3655
▁정규직	-10.3655
남북	-10.3656
▁판로	-10.3656
소녀상	-10.366
▁질주	-10.3663
▁현황	-10.3663
암	-10.3666
자산	-10.3671
▁독립	-10.3672
▁캐나다	-10.3682
▁1500	-10.3684
▁사업자	-10.3685
▁단신	-10.3695
▁총리와	-10.3696
▁제주서	-10.3697
▁좋아	-10.3706
▁대안	-10.3708
▁혁신도시	-10.3709
생산	-10.3713
돌	-10.3713
약	-10.3714
▁71	-10.3717
▁&	-10.3721
▁심상정	-10.3723
하세요	-10.3727
▁공항	-10.3727
▁제동	-10.3731
백색입자	-10.3736
창업	-10.3739
가짜	-10.374
▁행동	-10.3745
▁어디로	-10.3745
영국	-10.3746
▁교통	-10.3751
▁화성시	-10.3751
▁UN	-10.3756
▁미국서	-10.3758
배달	-10.3758
▁원격수업	-10.3759
KT	-10.3763
광	-10.3765
값	-10.3767
▁T	-10.3773
▁방역수칙	-10.3773
▁지나	-10.3779
▁이젠	-10.3783
운영	-10.3783
티	-10.3783
▁증정	-10.3786
▁의문	-10.3787
협력	-10.3794
검찰개혁	-10.3796
▁막바지	-10.3804
▁조기폐쇄	-10.3805
추	-10.3806
▁안양시	-10.3808
▁가득	-10.381
▁유가족	-10.3811
정정순	-10.3816
▁이상반응	-10.3817
이번엔	-10.3818
▁공시가격	-10.3827
본부	-10.383
▁설명	-10.3833
로봇	-10.3835
▁주의보	-10.3837
▁협력사	-10.3842
▁獨	-10.3842
▁주차	-10.3843
!”	-10.3844
▁물류	-10.3852
▁공정	-10.3857
주까지	-10.386
▁이슈	-10.3862
▁스타	-10.3862
라고	-10.3865
받아	-10.387
▁부분	-10.3871
▁대처	-10.3873
▁야간	-10.3873
▁역세권	-10.3876
쓰레기	-10.3878
▁공사장	-10.388
자료	-10.3886
▁해운대	-10.3887
▁가수	-10.3893
서초구	-10.3894
곳에	-10.3895
▁판매량	-10.3895
LH	-10.3895
▁주장에	-10.3896
▁요트	-10.3901
했다고	-10.3906
▁이수혁	-10.3917
▁방향	-10.3918
▁미니	-10.3926
▁2023	-10.3935
방송	-10.3935
▁서명	-10.3936
▁팔	-10.3938
▁본회의	-10.394
▁폭	-10.3941
요양시설	-10.3942
▁남북	-10.3943
▁수해	-10.3949
뿐	-10.395
▁가정	-10.395
▁북악산	-10.3954
▁산림청	-10.3957
▁경계	-10.3958
▁설계	-10.3959
▁수순	-10.3962
▁이견	-10.3966
터치	-10.3967
▁현대글로비스	-10.3969
전셋값	-10.3974
대규모	-10.3979
▁중앙	-10.3981
정치가	-10.3987
불안	-10.3988
▁성능	-10.3999
▁심의	-10.4001
▁제휴	-10.4003
▁내가	-10.4008
▁외면	-10.4008
▁평택	-10.4013
▁인권위	-10.4015
▁강서구	-10.4022
▁공급계약	-10.4024
▁간사	-10.4025
▁죄송	-10.4026
▁700	-10.4027
워치	-10.4028
▁다대포	-10.403
▁임금	-10.403
▁GC	-10.4032
공시	-10.4033
▁교류	-10.4033
▁시기	-10.4034
▁되는	-10.404
▁본다	-10.4045
▁진상규명	-10.4049
아르메니아	-10.405
택배노동자	-10.4054
▁라면	-10.4054
▁행정관	-10.4056
연내	-10.4058
농협	-10.4061
▁순	-10.4061
▁초반	-10.4063
전세난	-10.407
▁전통	-10.407
▁키운	-10.4082
서울시장	-10.4084
▁종목	-10.4093
아빠	-10.4098
SDI	-10.41
▁갖춘	-10.4101
▁늘린다	-10.4102
▁잡는다	-10.4102
▁발부	-10.4103
▁청주시	-10.4103
▁돕는다	-10.4104
독일	-10.4105
▁영업손실	-10.4106
▁고개	-10.4107
▁그림	-10.4111
브이	-10.4112
▁킥보드	-10.4112
▁신경전	-10.4114
교	-10.4117
음주운전	-10.4121
▁얘기	-10.4121
플랫폼	-10.4121
▁진주	-10.4123
▁항체	-10.4132
곧	-10.4134
▁어려운	-10.4134
화웨이	-10.4134
▁서리	-10.4135
▁이스타항공	-10.4137
일까	-10.4138
게임	-10.4144
▁가해자	-10.4155
▁96	-10.4156
▁연임	-10.416
▁인권	-10.4164
힌	-10.4165
▁소녀	-10.4168
▁니스	-10.4174
포	-10.4175
▁아동학대	-10.4177
문재인	-10.4178
▁하면	-10.418
▁클로징	-10.418
치료	-10.4186
▁쓴다	-10.4192
▁파손	-10.4192
▁드라이브	-10.4192
▁차지	-10.4192
▁맑고	-10.42
▁전담	-10.4201
▁특별전	-10.4212
▁헌혈	-10.4213
톡톡	-10.4214
▁발끈	-10.4216
▁노래방	-10.4218
명중	-10.422
▁취약	-10.4221
▁채취	-10.4224
▁인식	-10.4226
▁할로윈	-10.4229
▁주력	-10.4239
▁농촌	-10.4239
▁보다	-10.4246
▁전수	-10.4252
▁임기	-10.4259
모바일	-10.4269
▁반복	-10.4272
대표	-10.4275
▁오른다	-10.4276
능력	-10.4276
양심적	-10.4278
신고	-10.4278
년부터	-10.429
▁넘어서	-10.4295
▁첨단	-10.4295
과로사	-10.4297
▁권력형	-10.4297
▁선전	-10.4298
▁사이버	-10.43
겠다	-10.43
▁즉각	-10.43
설	-10.4301
▁쇼핑몰	-10.4301
▁고리	-10.4302
▁공매도	-10.4303
▁벼	-10.4304
▁시상	-10.4311
고용	-10.4314
▁운송	-10.4317
▁동맹	-10.4324
▁품질	-10.4325
▁거	-10.4325
▁챙긴	-10.4328
▁반환	-10.4331
뷰	-10.4332
치료제	-10.4333
▁실명	-10.4334
▁반입	-10.4335
▁만나는	-10.4336
▁떠나	-10.4338
▁않고	-10.4341
▁완공	-10.4345
”···	-10.4345
▁한정판	-10.4349
▁박훈	-10.435
▁해군	-10.4354
▁"10	-10.436
검언유착	-10.4361
▁삼척시	-10.4363
양	-10.4365
▁'10	-10.4365
▁재활용	-10.4373
▁이행	-10.4376
벌금	-10.4378
국민연금	-10.4379
김현미	-10.4381
일교차	-10.4382
▁‘1	-10.4383
▁많다	-10.4388
▁불만	-10.4388
▁배우자	-10.4392
시험	-10.4393
▁생명	-10.4395
▁구미	-10.4396
도서관	-10.4397
범	-10.4397
아직	-10.4399
대법	-10.4402
딸	-10.4402
▁46	-10.4404
르포	-10.4408
주일	-10.4413
▁이끈	-10.442
▁줄었다	-10.4421
▁떨어진	-10.4422
▁키워드	-10.4422
▁출간	-10.4424
...`	-10.4424
▁E	-10.4427
▁강연	-10.4428
▁기대감에	-10.4429
▁역대급	-10.443
▁넘은	-10.443
▁불분명	-10.4431
▁홍보대사	-10.4432
TP	-10.4432
▁무정차	-10.4433
▁완치	-10.4435
▁메뉴	-10.4436
▁BNK	-10.4439
▁미래에셋대우	-10.444
▁공소시효	-10.4444
▁女	-10.4444
▁서정협	-10.4446
포커스	-10.445
▁표명	-10.4453
▁LS	-10.4455
어린이	-10.4455
▁가능할까	-10.4456
▁무협	-10.4458
▁인터뷰	-10.446
▁주치의	-10.446
SNS	-10.4464
▁선방	-10.4466
▁위조	-10.4471
▁공개한	-10.4474
▁소비쿠폰	-10.4481
이라	-10.4482
▁국민청원	-10.4488
▁76	-10.4491
▁가해	-10.4493
▁회원	-10.4497
래	-10.4498
▁매물	-10.45
▁헬기	-10.4502
▁난	-10.4504
가격	-10.4507
올가을	-10.4508
▁개회	-10.4508
▁작성	-10.4508
▁구입	-10.4515
···“	-10.452
▁도봉구	-10.4521
가는	-10.4527
▁탈출	-10.4527
▁아래	-10.453
▁안팎	-10.4531
▁하루만에	-10.4531
▁오리온	-10.4532
것	-10.4534
▁성동구	-10.4539
▁엑스포	-10.454
보건소	-10.4541
나라	-10.4541
터	-10.4544
▁복지부	-10.4545
조용한	-10.4545
국내발생	-10.4546
▁국제유가	-10.4546
사모펀드	-10.4548
▁가입자	-10.4554
진단	-10.4554
▁소장	-10.4555
▁주인	-10.4556
▁지역발생	-10.4556
▁확산에	-10.4563
▁광장	-10.4567
▁증언	-10.4567
▁X	-10.4574
▁끝까지	-10.458
▁유리	-10.4581
▁특화	-10.4584
생활건강	-10.459
▁원격	-10.4594
유통	-10.4598
▁bhc	-10.4599
▁쉽게	-10.4599
▁쓰는	-10.46
▁건설현장	-10.4607
▁불길	-10.4608
▁신규확진자	-10.4609
위험	-10.461
▁열기	-10.4611
▁보석	-10.4612
▁질	-10.4616
▁퇴직연금	-10.4619
▁불러	-10.4626
경향	-10.4629
▁송	-10.463
▁1.5	-10.4631
▁상	-10.4632
라인	-10.4632
▁동작구	-10.4632
’...“	-10.4634
▁광주서	-10.4645
▁무역	-10.4647
▁저	-10.4648
한미동맹	-10.4649
▁스스로	-10.4651
▁바닥	-10.4656
▁고양	-10.4658
▁나섰다	-10.4658
▁빠른	-10.4659
브랜드	-10.4666
▁앞에	-10.4669
2000	-10.4669
▁4%	-10.4673
▁땅값	-10.4678
▁파트너십	-10.4681
▁탑재	-10.4682
▁돌연	-10.4682
▁물결	-10.4683
▁재검토	-10.4685
▁테라스	-10.4685
온택트	-10.4687
해달라	-10.469
▁소형	-10.4694
범죄	-10.4696
▁보복	-10.4698
교직원	-10.4701
▁안전한	-10.4704
샵	-10.4707
▁가속	-10.471
드는	-10.4711
▁적금	-10.4714
MB	-10.4714
박물관	-10.4719
▁권익위	-10.4722
▁노벨상	-10.4725
▁도쿄	-10.4727
사랑	-10.4732
채권	-10.4732
▁볼	-10.4738
▁전통시장	-10.4738
▁장례	-10.4745
▁65	-10.4749
▁소년	-10.4749
▁옷	-10.4752
▁야	-10.4755
▁비대위원장	-10.4759
▁빈	-10.4759
▁체납	-10.4763
▁NLL	-10.4769
▁담당	-10.477
▁뉴질랜드	-10.4771
께	-10.4773
▁경실련	-10.4774
대기업	-10.4776
나쁨	-10.4779
▁막아	-10.4781
▁미국인	-10.4781
▁굿즈	-10.4782
▁반정부	-10.4783
▁타이어	-10.479
▁수행	-10.4799
아동	-10.48
미세먼지	-10.4802
전두환	-10.4802
▁지역사회	-10.4803
▁완성	-10.4803
▁초대	-10.4808
(10	-10.4816
▁도내	-10.4816
▁도박	-10.4826
▁아카데미	-10.4832
▁병원서	-10.4833
▁신축	-10.4836
▁피	-10.4837
사랑의	-10.484
잘	-10.485
▁그린	-10.4851
▁파리바게뜨	-10.4852
▁낮	-10.4852
드론	-10.4852
도심	-10.4854
▁전하는	-10.4857
▁주주	-10.4859
·1	-10.4859
▁지켜	-10.4864
▁2.5	-10.4864
▁여수시	-10.4869
엄마	-10.487
▁엄정	-10.4873
▁지역감염	-10.4874
▁얼마나	-10.4877
키	-10.4878
다스	-10.4882
신규확진	-10.4886
▁김포	-10.4888
결국	-10.489
눈길	-10.4892
들과	-10.4893
▁사업장	-10.4893
▁일단	-10.4898
협의회	-10.4899
▁당시	-10.49
▁자전거	-10.4901
▁임용	-10.4912
▁지역화폐	-10.4925
▁외국	-10.4925
▁시내버스	-10.4928
▁리뉴얼	-10.493
노컷	-10.493
▁중등교사	-10.4933
▁뚫고	-10.4934
전략적	-10.4935
▁한국타이어	-10.4938
▁공물	-10.4939
▁롯데홈쇼핑	-10.4939
체	-10.4943
변호사	-10.4943
▁가짜	-10.4944
▁15%	-10.4944
통	-10.4945
자녀	-10.4946
창원	-10.4948
▁집회금지	-10.4949
외	-10.4949
▁덜미	-10.495
▁롯데백화점	-10.495
종합뉴스	-10.4952
▁김진애	-10.4959
▁'0'	-10.4967
▁68	-10.4974
▁고위험시설	-10.4974
▁일이	-10.4976
마지막	-10.4976
재단	-10.4978
재판	-10.4979
성추행	-10.4979
권력형	-10.498
▁주제	-10.4982
▁맥도날드	-10.4983
▁상주	-10.4985
▁익산시	-10.4992
증인	-10.4993
안전성	-10.4996
▁들여	-10.5002
합니다	-10.5002
내수	-10.5002
사람	-10.5005
▁고문	-10.5005
▁싶다	-10.5006
편한세상	-10.5017
itM	-10.5017
▁마포	-10.5017
▁세자리	-10.5017
▁나오나	-10.5017
▁없을	-10.5018
▁최소화	-10.5019
▁이상직	-10.502
▁나훈아	-10.5023
▁스킨앤스킨	-10.5024
▁"5	-10.5025
▁[2	-10.5027
▁컬렉션	-10.5027
▁탈원전	-10.5029
▁승객	-10.5032
▁양주시	-10.5036
▁재개발	-10.5038
이다	-10.5039
▁폐기	-10.5042
▁연세대	-10.5046
▁맞이	-10.5047
▁지수	-10.5051
외교	-10.5053
▁도마	-10.5053
상황	-10.5056
▁점포	-10.5056
인권	-10.5058
▁중징계	-10.5059
개월간	-10.506
▁온실가스	-10.5061
폼페이오	-10.5061
국정농단	-10.5066
껑충	-10.5066
▁대국민	-10.5078
▁플라스틱	-10.508
상승	-10.5082
폭행	-10.5084
▁특공	-10.5087
수사지휘권	-10.5088
▁부각	-10.5092
▁바꿔	-10.5097
▁고교	-10.5098
▁연수	-10.5104
▁훔친	-10.5105
▁뭐길래	-10.5105
▁발족	-10.5105
▁정지	-10.5106
▁완판	-10.5109
▁신한금융	-10.5112
▁해운대구	-10.5118
▁한국어	-10.5125
▁돼야	-10.5126
▁긴	-10.5129
▁노정희	-10.513
책임	-10.5131
▁제거	-10.5132
식당	-10.5133
▁고병원성	-10.5133
▁아이들	-10.5134
▁파티	-10.5135
▁승진	-10.5136
장중	-10.5139
▁다음주	-10.5141
▁호응	-10.5141
▁청장	-10.5142
▁다리	-10.5144
▁우수기관	-10.5147
국정감사	-10.5148
▁한도	-10.5148
학회	-10.5148
▁조달	-10.5152
▁유상증자	-10.5154
그린뉴딜	-10.5157
▁탄력	-10.516
▁박정희	-10.5161
▁사우나	-10.5172
사기	-10.5178
▁49	-10.5188
만원씩	-10.5192
▁화	-10.5196
▁이란	-10.5207
▁보	-10.5208
▁두산인프라코어	-10.5208
▁신동빈	-10.5212
▁중증	-10.5212
우수	-10.5215
집단	-10.5219
▁영장	-10.5221
▁신약	-10.5221
▁합병	-10.5225
▁생태계	-10.5229
이노베이션	-10.5234
▁가야	-10.5235
▁면접	-10.5238
인증	-10.5243
WTI	-10.5244
▁송환	-10.5244
▁커피	-10.5245
뇌물	-10.5247
▁칼	-10.5263
▁상임위	-10.5264
▁선생	-10.5267
▁영웅	-10.5269
▁잠정	-10.527
▁신도시	-10.5273
▁집주인	-10.5273
▁안동	-10.5276
▁같이	-10.5276
▁비공개	-10.5277
▁절반이	-10.528
▁출연	-10.528
▁전무	-10.5284
▁권한대행	-10.5285
▁자연	-10.5286
▁지친	-10.5287
상생	-10.5287
▁반성	-10.5287
▁방화	-10.5289
▁예정대로	-10.5291
▁미흡	-10.5293
▁판다	-10.5294
코드	-10.5295
▁민주노총	-10.5295
▁대웅제약	-10.5297
▁박용진	-10.5297
▁김영록	-10.5299
▁유해	-10.5304
▁만들기	-10.5305
조원대	-10.5305
▁네트워크	-10.5306
▁입법예고	-10.5308
▁내고	-10.5308
▁이내	-10.5308
▁강진	-10.5308
▁비판에	-10.531
▁정쟁	-10.5312
아시아	-10.5316
▁보건소	-10.5322
▁믿고	-10.5323
▁제조업	-10.5325
▁국무총리	-10.5326
▁안정적	-10.5333
▁자신	-10.5335
만주	-10.5336
▁민주주의	-10.5337
뉴욕증시	-10.5339
▁백화점	-10.5339
초점	-10.534
4000	-10.5345
▁익산	-10.5348
▁하	-10.5357
어린이집	-10.5359
▁매	-10.536
▁불복	-10.5362
사과	-10.5363
▁제로	-10.5364
체크	-10.5365
봉	-10.5369
▁출동	-10.5373
유플러스	-10.5373
▁경매	-10.5377
▁예비	-10.5377
▁무관	-10.5377
▁내야	-10.5379
▁인준	-10.5382
▁6000	-10.5383
▁직격	-10.5385
뉴욕	-10.5386
▁삼성카드	-10.5386
▁진에어	-10.5388
▁패널	-10.5389
▁실내	-10.5393
▁난항	-10.5394
▁여사	-10.5395
뷰티	-10.5397
▁보궐선거	-10.54
▁짐	-10.5405
▁현지	-10.5406
▁북적	-10.5409
▁입양	-10.5412
얼굴	-10.5419
▁경위	-10.542
▁조수진	-10.542
▁금감원장	-10.5422
▁바라보	-10.5422
70	-10.5422
롯데	-10.5422
수능	-10.5426
▁재고	-10.5428
法	-10.5428
새로운	-10.5432
서민	-10.5433
▁미래차	-10.5434
증	-10.5436
▁감염자	-10.544
▁필수노동자	-10.544
가전	-10.5441
양구	-10.5446
▁소속	-10.5453
▁월세	-10.5455
닷컴	-10.5463
조만간	-10.5464
▁알린다	-10.5464
▁선별진료소	-10.5464
▁우세	-10.5468
▁모니터링	-10.5469
록	-10.547
▁의료기관	-10.5471
▁디자이너	-10.5473
▁아모레	-10.5479
▁예산안	-10.548
▁증설	-10.548
▁청사	-10.5482
▁사죄	-10.5483
홍콩	-10.5484
포인트	-10.5485
▁냉장고	-10.5487
▁사형	-10.5487
▁알고	-10.5492
▁날개	-10.5493
작	-10.5505
▁윤석열에	-10.5512
중상모략	-10.5519
▁민	-10.5519
시민단체	-10.5521
칭다오	-10.5521
향후	-10.5522
매우	-10.5522
곤	-10.5525
▁공공임대	-10.5529
▁참	-10.5529
정의당	-10.553
▁우수상	-10.5536
▁농업	-10.5536
E	-10.5539
▁조짐	-10.554
▁공동주택	-10.554
▁데	-10.5544
균	-10.5547
인구	-10.5552
200	-10.5552
고성	-10.5554
▁꺼낸	-10.5559
손	-10.5568
▁수해복구	-10.5569
▁노벨평화상	-10.5572
▁입주자	-10.5573
▁coronavirus	-10.5573
▁상징	-10.5574
▁티몬	-10.5574
▁조성욱	-10.558
▁임대	-10.5581
▁불허	-10.5581
▁환노위	-10.5582
▁관여	-10.5583
▁폭발물	-10.5584
▁현대모비스	-10.5585
▁정치적	-10.5587
▁박사	-10.5588
▁안정세	-10.5589
서해	-10.5589
▁헬스케어	-10.5591
▁일평균	-10.5593
▁비대위	-10.5594
▁휴대전화	-10.5594
▁못한다	-10.5595
PR	-10.5596
▁호실적	-10.5599
인재	-10.5601
▁리더	-10.5602
▁라인	-10.5602
취업	-10.5604
▁광명시	-10.5606
횡령	-10.5615
허위사실	-10.5615
복	-10.5615
▁끝나	-10.5617
▁국비	-10.5618
추석연휴	-10.562
▁국방	-10.5621
▁주거	-10.5622
역사	-10.5623
▁'2	-10.5623
데이터	-10.5633
▁대권	-10.5634
▁특고	-10.5635
째	-10.5637
▁서울대병원	-10.5639
세금	-10.5647
▁치여	-10.5648
▁동상	-10.5652
▁농식품부	-10.5659
▁'80	-10.5664
▁기다리는	-10.5669
▁등급	-10.5672
▁줄고	-10.5672
▁조례안	-10.5676
▁성매매	-10.5679
▁재판서	-10.5686
▁외식	-10.5687
▁유예	-10.5689
▁나올까	-10.5694
▁배추	-10.57
▁코	-10.5702
▁정의	-10.5704
김홍영	-10.571
앱	-10.5712
▁병사	-10.5716
최다	-10.5718
▁썼다	-10.5719
▁병역	-10.5723
어이	-10.5729
▁투여	-10.5735
속도	-10.5738
▁to	-10.5739
현장연결	-10.5742
▁103	-10.5742
▁달린다	-10.5742
▁야생조류	-10.5744
▁없으면	-10.5744
▁금융지원	-10.575
▁동해	-10.5751
▁국	-10.5751
▁스위스	-10.5752
▁중단하라	-10.5752
▁정보공개	-10.5753
▁전현희	-10.5754
▁중계	-10.5755
▁동	-10.5756
▁남용	-10.5756
▁P	-10.5757
▁NSC	-10.5759
픽	-10.576
▁소유	-10.5765
▁아들에	-10.5766
공간	-10.5773
▁지점	-10.5773
▁불량	-10.5777
▁덕에	-10.5779
▁팔아	-10.578
▁성희롱	-10.5784
▁악재	-10.5786
스포츠	-10.5787
감사원	-10.5788
공급	-10.579
▁김용	-10.5792
ing	-10.5797
▁민심	-10.5809
코나	-10.5809
평화	-10.5814
▁코리아세일페스타	-10.5815
▁동네	-10.5816
▁공정경제	-10.5816
▁농협은행	-10.5823
▁신생아	-10.5823
월세	-10.5825
▁맞춤	-10.5826
▁기	-10.5826
▁기존	-10.5827
개혁	-10.5828
▁넘겨	-10.5835
바이오팜	-10.5836
▁총수	-10.5837
▁공기	-10.5839
▁참전	-10.584
▁진주시	-10.5842
▁증권	-10.5843
▁삼성바이오로직스	-10.5843
▁공청회	-10.5844
▁연관	-10.5845
천여	-10.5848
i	-10.5849
▁요구에	-10.5849
▁물품	-10.5853
감찰	-10.5854
▁파행	-10.5856
▁학술대회	-10.5857
▁사회공헌	-10.586
▁관건	-10.5861
▁따로	-10.5865
▁오토바이	-10.5866
▁동문	-10.5866
▁아래로	-10.5867
부품	-10.5869
▁치킨	-10.587
▁155	-10.5872
▁추	-10.5873
개선	-10.5874
▁강좌	-10.5875
▁항소	-10.5879
...16	-10.5882
▁경찰에	-10.5882
▁활용한	-10.5885
▁제한적	-10.5887
로비	-10.5893
테스형	-10.5896
카카오	-10.59
▁고향	-10.5905
▁골프모임	-10.5907
▁시나리오	-10.5907
려	-10.5908
▁댓글	-10.5908
공정위	-10.5914
▁비대면으로	-10.5915
▁손해배상	-10.5926
탄	-10.5928
▁돌	-10.5929
▁한정	-10.5931
▁떠난	-10.5933
▁마크롱	-10.5934
▁소아	-10.5935
주한미군	-10.5937
▁서대문구	-10.5938
▁문턱	-10.5939
▁저소득	-10.5941
▁손경식	-10.5942
▁민경욱	-10.5943
▁벤처	-10.5945
▁한화	-10.5945
▁이재민	-10.5948
▁입성	-10.5951
홍천	-10.5952
울	-10.5954
▁알고리즘	-10.5957
▁예배	-10.5957
▁남침	-10.5961
▁주간	-10.5964
▁도시락	-10.5965
▁HUG	-10.5967
▁본부장	-10.5972
▁제약	-10.5973
▁대필	-10.5976
▁전문가들	-10.5978
▁산림	-10.5978
랜선	-10.5981
▁제네시스	-10.5982
▁환급	-10.5988
▁동해시	-10.5992
▁주유소	-10.5993
▁총장에	-10.5994
▁쓰면	-10.5995
줄	-10.5995
컨콜	-10.5997
8000	-10.5998
▁치유	-10.6001
▁51	-10.6003
노인	-10.6004
대가	-10.6006
▁찾았다	-10.6009
조치	-10.6012
통계	-10.6015
체계	-10.6021
▁거절	-10.6023
▁발병	-10.6029
앤	-10.6032
▁없나	-10.6036
▁받아야	-10.6041
유엔	-10.6041
시간만에	-10.6045
철원	-10.6045
돌봄	-10.6045
▁정조준	-10.6048
▁리스크	-10.6052
▁프랜차이즈	-10.6053
▁입지	-10.6054
동학개미	-10.6056
입니다	-10.6063
▁재보선	-10.6068
▁소방	-10.6069
부실	-10.607
▁경상	-10.6072
▁북한산	-10.6075
▁안성	-10.6078
▁군산시	-10.6081
학기	-10.6091
항미원조	-10.6093
mm	-10.6095
건물	-10.6096
핼러윈데이	-10.6097
▁출산	-10.61
▁파트너	-10.6106
▁성주	-10.6109
▁MBC	-10.6118
▁이자	-10.6119
교회	-10.612
▁부산대	-10.6122
▁싶은	-10.6123
▁cases	-10.6125
▁명단	-10.6126
▁IBK	-10.613
▁견학	-10.6132
29	-10.6133
▁써	-10.6136
▁랜선	-10.6137
케어	-10.6138
▁에어부산	-10.6141
▁밀양	-10.6144
▁효성	-10.6145
▁비전	-10.6145
푸드	-10.6147
식품	-10.6147
▁즉시	-10.6147
▁유상범	-10.6147
나무	-10.6147
▁박용만	-10.6147
▁지인	-10.6147
▁최대치	-10.6151
▁두기	-10.6154
플러스	-10.6157
▁상원	-10.6158
있	-10.6158
▁비행기	-10.616
억원대	-10.616
▁참여자	-10.6162
▁입학	-10.6162
▁건조	-10.6162
그린	-10.6164
▁보험금	-10.6169
▁끝에	-10.6173
▁정읍시	-10.6176
▁사라져	-10.6177
입법	-10.6182
nd	-10.6185
News	-10.6186
빅	-10.6189
▁취재진	-10.619
빛	-10.619
방안	-10.619
▁차량집회	-10.62
▁춘천시	-10.6203
▁자	-10.6206
▁경찰청	-10.6209
▁코로나에도	-10.6211
▁평택시	-10.6219
▁세대	-10.6224
▁시찰	-10.6225
▁102	-10.6227
▁감	-10.623
만원대	-10.623
▁철회하라	-10.6231
▁품은	-10.6231
목	-10.6231
▁부자	-10.6234
▁최측근	-10.6235
▁81	-10.6236
▁등극	-10.6237
▁인구주택총조사	-10.6239
▁하겠다	-10.6239
▁김웅	-10.624
▁알	-10.6243
▁구조조정	-10.6244
프	-10.6245
▁(2	-10.6245
▁年	-10.625
▁은수미	-10.6251
▁문준용	-10.6252
▁마	-10.6254
▁주관	-10.6254
▁교원	-10.6257
여권	-10.6257
▁가계대출	-10.6259
▁대형마트	-10.626
▁참사	-10.6262
▁부산항	-10.6262
공항	-10.6264
대응	-10.6264
▁화성	-10.6265
라는	-10.6265
▁억대	-10.6268
▁서울시교육청	-10.6269
▁고창군	-10.6269
▁폭락	-10.6269
▁넷플릭스	-10.6273
▁거래소	-10.628
소송	-10.6281
총선	-10.6281
▁검사장	-10.6285
▁앵커	-10.6287
y	-10.6288
▁반납	-10.6288
▁권한	-10.6289
▁LA	-10.6289
역학조사	-10.6289
들에게	-10.6292
폰	-10.6293
과정	-10.6296
▁삼척	-10.6296
교수	-10.6297
CEO	-10.6299
▁집콕	-10.6301
▁폭력	-10.6304
▁목숨	-10.6305
▁부여	-10.6308
▁매체	-10.6309
직장	-10.6311
▁악용	-10.6315
▁안전관리	-10.6319
▁소각	-10.6321
슬기로운	-10.6321
혐의	-10.6322
▁다쳐	-10.6322
히려	-10.6322
▁런칭	-10.6323
차관	-10.6324
▁증원	-10.6325
▁제보	-10.6328
▁명칭	-10.6329
▁고수	-10.6331
▁찍은	-10.6332
▁늘어난	-10.6333
▁걷기	-10.6335
▁출격	-10.6338
타운	-10.6343
▁골든타임	-10.6343
청주	-10.6343
테크	-10.6347
▁한우	-10.6349
▁노래	-10.6351
▁당직사병	-10.6352
▁열병식에	-10.6352
▁영등포구	-10.6353
▁월급	-10.6354
▁전액	-10.6358
▁집합금지	-10.6363
▁국회서	-10.6365
▁떠나는	-10.6365
▁감염경로	-10.6367
▁여아	-10.6367
▁서한	-10.6369
▁코웨이	-10.637
▁호조	-10.6371
▁미달	-10.6373
▁조성사업	-10.6377
▁구	-10.6378
▁개미들	-10.6379
연속	-10.6382
▁남아	-10.6385
▁농	-10.6386
▁세월호	-10.6388
라운드	-10.6389
연말	-10.6391
...15	-10.6393
국민카드	-10.6395
女	-10.6396
테슬라	-10.6396
▁꽃	-10.6401
▁관측	-10.6403
▁유망	-10.641
몰	-10.6414
▁상용화	-10.6415
▁먹고	-10.6417
▁의료기기	-10.6417
▁홈	-10.6419
▁여주	-10.6424
▁취항	-10.6424
EV	-10.6425
▁주범	-10.6429
▁물류센터	-10.643
▁견본주택	-10.6432
▁영면	-10.6433
▁안정화	-10.6433
▁해산	-10.6434
▁보관	-10.6435
▁대한상의	-10.6437
▁산행	-10.6438
처리	-10.6439
이게	-10.6441
질의	-10.6445
▁최종건	-10.6447
짜리	-10.6447
▁컨콜	-10.6452
독도	-10.6454
외식	-10.6455
▁입고	-10.6456
▁외부	-10.6456
▁기업에	-10.6458
▁통일	-10.6459
▁저소득층	-10.6459
▁파주	-10.646
▁신상	-10.6461
▁부활	-10.6462
▁900	-10.6466
▁펼쳐	-10.6467
신청	-10.6468
▁안에	-10.6473
연합	-10.6474
강원도	-10.6475
학원	-10.6476
▁음식점	-10.6478
▁130	-10.6485
▁55	-10.6485
▁재난	-10.6487
▁올려	-10.6493
곳곳	-10.6494
질병청	-10.6494
▁정착	-10.6496
▁'4	-10.65
이마트	-10.6501
▁신혼부부	-10.6501
▁제재심	-10.6501
보고	-10.6503
▁했나	-10.6503
▁유의	-10.6504
▁김장	-10.6506
의혹	-10.6508
▁면역	-10.6527
▁작심	-10.653
▁폭등	-10.653
▁격화	-10.6531
▁미혼모	-10.6533
▁있을	-10.6534
만원에	-10.6534
▁새로	-10.6535
▁타당성	-10.6536
▁하고	-10.6539
▁불법행위	-10.6539
배로	-10.6542
▁휴전	-10.6543
100	-10.6549
▁초기	-10.655
▁독직폭행	-10.6554
▁공로	-10.6555
▁그림자	-10.6555
확대	-10.6555
▁정무위	-10.6556
개월만	-10.6557
쇼	-10.6558
▁수급	-10.6559
▁도서관	-10.656
▁휴업	-10.6562
▁기본소득	-10.6563
운전자	-10.6563
▁마리	-10.6567
▁당정	-10.6569
디자인	-10.657
▁활짝	-10.6572
▁코트라	-10.6572
▁감사결과	-10.6577
tional	-10.6577
택	-10.6581
▁OK	-10.6582
▁기적	-10.6585
이달	-10.6591
▁전날	-10.6591
비율	-10.6593
▁이용자	-10.6595
카페	-10.6596
드라이브	-10.6597
지역균형	-10.6599
▁2400	-10.66
▁접종한	-10.6602
방역수칙	-10.6602
▁시세	-10.6605
▁높여	-10.662
▁덮친	-10.6624
▁맹비난	-10.6626
부모	-10.6632
▁교환	-10.6633
▁공표	-10.6636
▁네팔	-10.6639
▁전동킥보드	-10.664
▁특가	-10.6641
▁우리말	-10.6641
▁소집	-10.665
가스	-10.665
▁원활	-10.6651
40	-10.6651
▁신동근	-10.6653
함께	-10.6654
▁엇갈린	-10.6655
▁논문	-10.6661
▁시비	-10.6662
▁소식	-10.6665
▁다나병원	-10.6669
▁자기	-10.6672
의료	-10.6672
시신	-10.6674
▁얼음	-10.6678
▁뭐	-10.6688
▁지출	-10.6693
▁‘3	-10.6705
보수단체	-10.6707
▁커밍아웃	-10.6708
▁여자	-10.671
수소차	-10.6715
▁싸움	-10.6719
▁질환	-10.6723
소방관	-10.6725
▁홍천	-10.6729
▁마켓	-10.6732
▁조명래	-10.6733
▁위메프	-10.6737
▁조은산	-10.6737
▁구하라	-10.6743
운동	-10.6748
▁코이카	-10.6749
▁분리	-10.6749
▁맞는	-10.6753
팝	-10.6757
▁최장	-10.6761
▁보좌관	-10.6762
▁투쟁	-10.6762
들어	-10.6763
▁125	-10.6765
▁양호	-10.6766
▁이사회	-10.6769
▁적법	-10.6774
밤	-10.6774
희망	-10.6775
▁구호	-10.6775
▁목사	-10.6775
합의	-10.678
▁아스트라제네카	-10.6782
▁17%	-10.6794
▁흡입	-10.6794
심사	-10.6796
아기	-10.68
부산시	-10.6806
피	-10.6808
▁스마트시티	-10.681
기재부	-10.6811
영업익	-10.6811
공연	-10.6813
▁현역	-10.6813
▁교육감	-10.6816
동해	-10.6818
▁파장	-10.6821
▁특별법	-10.6827
여건	-10.6828
▁지목	-10.6832
헌	-10.6832
▁접견	-10.6833
▁희생자	-10.6834
씩	-10.6834
▁낚싯배	-10.6836
▁결의안	-10.6838
소재	-10.6838
▁친필	-10.6838
공개	-10.6839
▁오피스	-10.6842
▁강동구	-10.6845
▁기장군	-10.6846
갈등	-10.6849
▁편지에	-10.685
▁전파진흥원	-10.6855
물질	-10.6856
▁기도	-10.6856
▁정말	-10.6858
▁내려	-10.6859
▁강원랜드	-10.6859
▁경로	-10.6861
▁악플	-10.6862
전략	-10.6865
▁부정적	-10.6867
텍	-10.6869
▁김대	-10.6875
최소	-10.6877
W	-10.6878
▁나서야	-10.6879
지인	-10.688
▁DMZ	-10.6881
▁다수	-10.6881
...13	-10.6885
▁新	-10.6885
▁LED	-10.6885
▁자신감	-10.6886
▁눈앞	-10.689
▁보험료	-10.6892
▁인제	-10.6899
소비자	-10.6901
방문	-10.6904
▁한진	-10.6907
중증	-10.6907
▁충주	-10.6907
돼야	-10.6914
▁필요한	-10.6915
술접대	-10.6917
▁박근혜	-10.6919
기구	-10.6924
▁높인	-10.6933
▁내주	-10.6933
▁살펴보	-10.6934
wire	-10.6937
▁지도	-10.6938
▁벗고	-10.6942
▁당근마켓	-10.6942
이번	-10.6942
▁이재갑	-10.6943
▁불명	-10.6943
▁광주광역시	-10.6945
강세	-10.6945
▁광주은행	-10.6948
▁철수	-10.6949
▁어려움	-10.6951
▁부평	-10.6952
▁없고	-10.6953
...17	-10.6953
▁가방	-10.6956
▁행진	-10.6957
▁합참의장	-10.6958
▁시너지	-10.6958
▁홀로	-10.6961
동생	-10.6962
▁140	-10.6966
▁슈퍼	-10.6968
▁등록금	-10.6971
▁주총	-10.6981
▁맑음	-10.6982
▁공판	-10.6982
▁껑충	-10.6983
▁판사	-10.6984
▁맥주	-10.6984
▁동해안	-10.6988
▁조속	-10.6989
▁작은	-10.6993
▁MZ	-10.6993
▁재무	-10.6993
▁비자	-10.7004
여개	-10.7004
품질	-10.701
▁산하	-10.7014
▁미성년자	-10.7015
▁대표에	-10.7022
현장영상	-10.7022
▁공모사업	-10.7022
▁남양주시	-10.7027
의약품	-10.7031
지도	-10.7031
=	-10.7032
▁박탈	-10.7035
▁여파로	-10.7036
▁연쇄	-10.7038
▁대란	-10.7039
▁도민	-10.704
▁공직선거법	-10.704
▁예술	-10.7041
▁입장문	-10.7042
▁일축	-10.7044
▁ELS	-10.7045
31	-10.7046
▁최대폭	-10.7048
물품	-10.705
시위	-10.7052
락	-10.7052
▁저항	-10.7053
▁재가동	-10.7054
▁표준	-10.7054
▁프레임	-10.7056
▁8·15	-10.7057
▁살처분	-10.7057
▁모욕	-10.7059
▁위상	-10.7061
측	-10.7067
▁V	-10.7068
▁제소	-10.7069
▁반전	-10.707
▁산업단지	-10.7073
결과	-10.7078
▁재택근무	-10.7078
▁수소차	-10.7082
▁국경절	-10.7083
▁시선	-10.7086
▁척	-10.7089
죠	-10.7092
디	-10.7093
▁낮은	-10.7098
▁성적	-10.7099
▁고심	-10.7101
▁에어	-10.7102
▁때려	-10.7104
▁구급차	-10.7104
인원	-10.7106
▁허	-10.7106
▁공동수상	-10.7107
▁벽	-10.7112
▁창건일	-10.7113
▁카메라	-10.7113
...70	-10.7116
집중	-10.7121
시까지	-10.7123
▁지지자들	-10.7123
▁진로	-10.7125
깜깜이	-10.7129
▁나올	-10.7132
애플	-10.7133
▁국민은행	-10.7133
▁조선	-10.7134
받고	-10.7135
생명	-10.7137
▁광주시장	-10.714
데이	-10.7141
▁경비원	-10.7143
▁퇴출	-10.7144
▁성명	-10.7145
▁거점	-10.7146
▁금융위원장	-10.7149
▁다녀온	-10.7151
▁구간	-10.7151
▁선보인다	-10.7151
▁않았다	-10.7151
▁막아라	-10.7152
▁회피	-10.7154
▁마세요	-10.7157
▁저평가	-10.7159
기금	-10.7159
릴	-10.7159
▁직후	-10.7161
▁난타전	-10.7163
▁아시아나항공	-10.7164
▁마련해야	-10.7164
▁움직임	-10.7165
만큼	-10.7167
▁사진전	-10.7167
▁진압	-10.7169
쾅	-10.7171
▁농심	-10.7172
▁유산	-10.7173
▁3·4	-10.7175
▁용의자	-10.7175
년도	-10.7178
▁방사능	-10.7179
▁문화재	-10.7182
▁우대	-10.7182
▁소지	-10.7188
▁달라진	-10.7189
▁증여	-10.7189
▁항만	-10.7193
▁미리	-10.7197
▁탑승	-10.7197
▁스토리	-10.7198
▁방탄소년단	-10.7201
눈	-10.7202
▁푸틴	-10.7205
▁광화문광장	-10.7208
▁당했다	-10.721
격리	-10.7213
▁위축	-10.7215
▁KTX	-10.7217
▁금융사	-10.7218
▁후원금	-10.7224
▁절대	-10.7229
쌀쌀	-10.723
▁삼성증권	-10.7233
▁부대	-10.7234
▁한국형	-10.7235
▁천안서	-10.7235
▁빈소에	-10.7245
▁캠핑	-10.7251
▁불가능	-10.7251
▁잇달아	-10.726
▁늘려야	-10.7261
▁근접	-10.7264
▁신화	-10.7265
▁비자금	-10.7268
학과	-10.7268
▁상회	-10.7269
▁후퇴	-10.7269
한국형	-10.727
▁항원	-10.727
▁HMM	-10.7271
숙박	-10.7274
▁당한	-10.7275
▁푸르지오	-10.7275
▁거듭	-10.7275
▁차례	-10.7277
마음	-10.7279
▁갑자기	-10.7281
▁경찰서	-10.7281
▁칭다오	-10.7281
▁힘든	-10.7283
항	-10.7287
패션	-10.7287
적으로	-10.7295
▁실제	-10.7297
▁블록체인	-10.7304
▁불안한	-10.7308
▁막말	-10.7309
▁식사	-10.731
▁개교	-10.7318
▁제고	-10.7325
▁마포구	-10.7329
였다	-10.7344
북적	-10.7345
▁공수처법	-10.7352
리포트	-10.7352
▁최대주주	-10.7352
▁세계적	-10.7352
라임사태	-10.7353
경쟁률	-10.7353
▁N	-10.7354
지배구조	-10.7354
▁리	-10.7356
연말까지	-10.7363
▁흉기로	-10.7364
▁명예	-10.7365
▁심야	-10.7366
家	-10.7368
추린	-10.737
▁97	-10.737
▁절감	-10.7371
▁추돌사고	-10.7371
이번주	-10.7374
▁찍고	-10.7376
▁자사주	-10.7377
▁같다	-10.7378
▁장남	-10.7379
▁은평구	-10.7382
▁연구팀	-10.7386
▁봉사활동	-10.7388
▁수산물	-10.7389
▁추천위	-10.7389
▁수단	-10.7389
▁현대백화점	-10.7392
강기정	-10.7392
▁공약	-10.7394
국감서	-10.7395
▁NYT	-10.7398
▁인테리어	-10.7399
▁안보실장	-10.7399
▁비극	-10.7401
▁필요성	-10.7403
신한	-10.7404
▁남부	-10.7405
수원	-10.7406
뒤	-10.7409
▁흑자전환	-10.741
!'	-10.7412
▁반려견	-10.7416
▁교직원	-10.7421
▁아름다운	-10.7422
400	-10.7423
▁흐름	-10.7424
▁시흥	-10.7424
▁친	-10.7425
▁현재	-10.7426
▁한때	-10.7431
▁잡는	-10.7435
▁울산서	-10.7438
물류	-10.7438
▁보조금	-10.7441
▁황	-10.7445
규모	-10.7445
▁보험사	-10.7449
▁지지도	-10.7449
승	-10.7449
▁6%	-10.7457
▁하라	-10.746
쿼드	-10.7464
▁상습	-10.7464
남북관계	-10.7466
▁↓	-10.7467
실종	-10.7468
▁산재보험	-10.7471
좋은	-10.7475
▁안인득	-10.748
▁헤드라인	-10.748
▁250	-10.748
▁최우선	-10.7481
정치적	-10.7481
▁균형	-10.7481
▁챙겨	-10.7484
국방부	-10.7492
▁조정래	-10.7493
▁쓴소리	-10.7493
▁연료전지	-10.7496
▁결의	-10.7497
▁이틀만에	-10.7498
▁초등학생	-10.7499
용품	-10.7502
▁자격	-10.7503
학대	-10.7504
▁물질	-10.7505
▁김두관	-10.7505
매일	-10.7507
▁소동	-10.7507
▁주춤	-10.751
▁127	-10.7514
▁시티	-10.7515
▁강화해야	-10.7515
▁전교조	-10.7517
▁고민정	-10.7519
▁구멍	-10.7522
▁의식불명	-10.7523
▁안전사고	-10.7526
▁클라우드	-10.7529
▁재건축	-10.7529
▁고창	-10.753
▁톱	-10.7535
▁추세	-10.7538
▁저감	-10.7542
18	-10.7545
몸	-10.7546
선의	-10.7548
▁설비	-10.7554
국민의짐	-10.7567
▁전혀	-10.7568
서울대	-10.7572
▁키트	-10.7575
▁건수	-10.7575
"..	-10.7575
▁광양시	-10.7577
▁때까지	-10.758
기존	-10.7581
허위	-10.7581
겐	-10.7582
▁미착용	-10.7583
상태	-10.7584
한테	-10.7586
▁늘	-10.7587
▁수석	-10.7587
▁들이받아	-10.7593
▁만날	-10.7594
▁박진성	-10.7596
예	-10.7601
▁증인선서	-10.7601
▁긴급생계지원금	-10.7602
▁기본	-10.7603
▁출하	-10.7604
▁결혼식	-10.7606
▁은폐	-10.7607
▁의도	-10.7608
▁발목	-10.7609
▁홈페이지	-10.7612
▁적극행정	-10.7613
▁오류	-10.7615
▁집에	-10.7618
학	-10.7618
▁헌정대상	-10.7619
손보	-10.7622
▁승계	-10.7622
▁한국투자증권	-10.7623
▁국세청장	-10.7625
▁원료	-10.7626
▁홍수	-10.7626
▁봇물	-10.7629
▁어머니	-10.7629
▁H	-10.7631
▁명의	-10.7631
수수료	-10.7637
강력	-10.7637
▁전방위	-10.7639
통신	-10.764
6000	-10.7642
▁김주하	-10.7644
▁단풍철	-10.7651
↑-	-10.7652
▁김재현	-10.7653
▁중국인	-10.7654
▁들이받	-10.7656
▁조건부	-10.7656
너무	-10.7657
조선	-10.7659
▁하세요	-10.7664
▁"2	-10.7666
참	-10.7666
▁위증	-10.7671
▁일요일	-10.7674
열병식	-10.7678
▁한산	-10.7682
전기	-10.7682
▁시청	-10.7683
▁중형	-10.7684
▁양지마을	-10.7684
▁측정	-10.769
▁도착한	-10.769
▁것으로	-10.7691
최우수	-10.7691
▁승부수	-10.7693
내로남불	-10.7694
위기에	-10.7694
▁걸	-10.7695
▁위원	-10.7695
▁만덕동	-10.7695
원희룡	-10.7696
곡	-10.7697
▁김여정	-10.7697
▁평창	-10.7701
그래도	-10.7702
▁증명	-10.7702
▁오산시	-10.7703
투	-10.7705
▁해역	-10.7705
칼텍스	-10.7706
▁천안시	-10.7709
▁판매사	-10.7709
▁태백시	-10.771
▁돌진	-10.7712
▁만료	-10.7714
▁묵념	-10.7714
▁늘고	-10.7715
▁가까이	-10.7716
▁병원장들	-10.7718
▁콜라보	-10.7718
▁복합	-10.7719
▁의약품	-10.772
▁음악	-10.772
▁성금	-10.7722
▁회사채	-10.7725
램	-10.7731
▁사망사고	-10.7732
2022	-10.7732
중앙	-10.7733
▁기소의견	-10.7733
▁인플루엔자	-10.7733
▁잠적	-10.7737
▁회담	-10.774
전주	-10.7741
▁고비	-10.7747
▁위헌	-10.7747
속초	-10.7747
▁테스트	-10.7747
▁정국	-10.7748
▁허위사실	-10.7748
▁정도	-10.7749
▁한국은행	-10.775
▁압류	-10.7751
▁메디톡스	-10.7752
75	-10.7758
▁시군	-10.776
정신	-10.7761
▁제보자	-10.7762
빈	-10.7763
▁양	-10.7764
▁지구	-10.7767
▁신기술	-10.7776
▁DB	-10.7779
▁부산시장	-10.778
▁간호조무사	-10.7781
▁대신증권	-10.7785
▁입은	-10.7785
▁쇼크	-10.7789
국세청	-10.779
연구원	-10.7792
▁김영	-10.7795
▁느껴	-10.7796
▁106	-10.7797
허가	-10.7804
라이브	-10.7804
랩	-10.7805
개념	-10.7806
정쟁	-10.7808
▁찾아가	-10.7811
IPO	-10.7811
누구	-10.7812
英	-10.7812
노동	-10.7817
▁무상	-10.7818
▁끝난	-10.7819
▁샀다	-10.7821
▁강구	-10.7821
▁추락사	-10.7822
▁주당순이익	-10.7822
▁줄인다	-10.7822
▁유보	-10.7825
▁맞춰	-10.7825
▁증인채택	-10.7826
▁노웅래	-10.7828
▁금호타이어	-10.7828
▁삼양식품	-10.7829
▁피의자	-10.7833
한전	-10.7833
마켓인	-10.7836
공수처법	-10.7837
▁왔다	-10.7838
▁정상회의	-10.7839
▁김소연	-10.784
▁상호	-10.7841
▁역전	-10.7841
▁억제	-10.7841
▁이동걸	-10.785
촌	-10.7855
과제	-10.7857
▁재탄생	-10.7859
▁가로	-10.7859
▁보여	-10.787
▁이스라엘	-10.7878
기반	-10.7879
▁박덕흠	-10.7879
▁손상	-10.7882
▁과다	-10.7886
'···	-10.7897
데일리	-10.7897
▁사전예약	-10.7901
▁동행	-10.7907
▁한국노총	-10.791
운용	-10.7911
▁83	-10.7912
토	-10.7917
▁대우조선해양	-10.7919
▁단장	-10.7921
▁안양	-10.7922
▁남자	-10.7927
▁과학	-10.7929
출근길	-10.7929
신속	-10.7929
IBK	-10.7929
어떻게	-10.793
MBN	-10.793
혁신도시	-10.793
▁93	-10.7931
한국전쟁	-10.7933
전세시장	-10.7933
라도	-10.7936
▁늘려	-10.7937
미리보는	-10.7938
▁반도건설	-10.7938
▁찾습니다	-10.7938
▁진	-10.7942
▁노원구	-10.7943
알	-10.7943
소통	-10.7943
▁경북대	-10.7944
▁경기도교육청	-10.7944
▁품으로	-10.7944
▁둔화	-10.7945
▁94	-10.7948
▁영하	-10.7948
▁롯데캐슬	-10.7949
오늘부터	-10.795
▁강제추행	-10.7951
▁빗방울	-10.7951
▁의정부시	-10.7951
공공	-10.7952
▁이철	-10.7952
▁콘퍼런스	-10.7954
▁곽상도	-10.7955
▁국민의	-10.7956
▁'2021	-10.7956
▁청탁	-10.7957
대체	-10.7959
인권위	-10.7959
▁중부	-10.7959
J	-10.796
▁국민의당	-10.7961
▁국화	-10.7963
▁뒤늦게	-10.797
▁목포	-10.797
▁야외	-10.797
노동자	-10.7979
▁준다	-10.798
▁56	-10.7981
▁판문점	-10.7986
2020	-10.7986
▁121	-10.799
▁각	-10.7991
▁심각한	-10.7996
▁파괴	-10.8003
▁통금	-10.8015
있는	-10.8015
▁의대	-10.8021
▁물적분할	-10.8022
태양광	-10.8023
▁창고	-10.803
▁조사중	-10.8038
물량	-10.8039
홍	-10.8042
휠	-10.8046
아마존	-10.8047
▁분양가	-10.8047
▁네덜란드	-10.8047
달라	-10.8048
어떤	-10.8048
마트	-10.8049
오염수	-10.8049
▁U	-10.8052
▁나타나	-10.8052
옥	-10.8052
▁막는	-10.8053
누가	-10.8053
▁취해	-10.8054
▁바뀐다	-10.8058
▁노하우	-10.806
▁이끈다	-10.806
신고서	-10.8063
▁가중	-10.8065
▁무조건	-10.8065
▁포인트	-10.8066
▁잇따른	-10.8068
▁받을	-10.807
▁수험생	-10.8071
▁순방	-10.8071
▁뿔난	-10.8072
▁부채	-10.8073
▁신원	-10.8073
▁하늘길	-10.8074
웅	-10.8075
▁98	-10.8077
▁재해	-10.8078
▁나들이	-10.8079
▁존중	-10.8079
▁직업	-10.808
원인	-10.8081
▁막을	-10.8082
경쟁	-10.8083
▁공시	-10.8083
▁몰랐다	-10.8084
▁변동성	-10.8085
▁0.5%	-10.8088
▁김병욱	-10.8094
▁영향은	-10.8094
▁대해	-10.8094
▁법정구속	-10.8095
▁개척	-10.8096
▁불응	-10.8098
성범죄	-10.8101
▁표창장	-10.8101
▁못하는	-10.8102
▁동남아	-10.8103
맨	-10.8105
▁쓸	-10.8107
▁바꾼다	-10.8114
▁주시	-10.8115
▁부검	-10.8116
신형	-10.8117
▁김천시	-10.8118
▁요금	-10.8124
▁2020'	-10.813
겨울	-10.8133
만에	-10.8134
▁안보	-10.814
▁해뜨락	-10.8143
세상	-10.8143
적극	-10.8145
▁재개장	-10.8145
▁지역경제	-10.8147
▁계절	-10.8148
▁계기	-10.8148
보고서	-10.8149
▁단어	-10.8151
이런	-10.8155
비자금	-10.816
자가격리	-10.8163
환율	-10.8163
▁환불	-10.8166
단풍	-10.8166
▁높이	-10.8166
예방	-10.8167
▁요리	-10.817
중전회	-10.8174
▁티웨이항공	-10.8176
▁푼다	-10.8178
▁두려워	-10.8178
▁권	-10.818
▁대유행	-10.8181
캠프	-10.8182
▁악수	-10.8186
▁쿠폰	-10.8187
▁사러	-10.8187
▁마라	-10.8191
회복	-10.8192
큐브	-10.8195
▁스웨덴	-10.8195
▁유공자	-10.8195
▁컨소시엄	-10.8196
▁KAIST	-10.8196
▁타이어뱅크	-10.8199
포천	-10.8204
자산운용	-10.8204
▁환수	-10.8206
▁오뚜기	-10.8207
볼	-10.8208
▁견인	-10.8214
▁쾌유	-10.8219
▁부산은행	-10.8221
▁김치	-10.8223
▁옥중서신	-10.8225
▁토지	-10.8225
▁대입	-10.8228
▁재개관	-10.8228
▁ITC	-10.823
▁조심	-10.8231
▁無	-10.8231
▁고가	-10.8234
▁젊은	-10.8236
▁지휘권	-10.8237
▁외신	-10.8242
오래	-10.8243
▁되면	-10.8247
▁강요	-10.825
▁현수막	-10.8251
중단	-10.8251
▁대통령에	-10.8252
▁신한	-10.8254
▁공화당	-10.8257
모빌리티	-10.8258
금융권	-10.8264
+]	-10.8265
▁바다에	-10.8267
▁유아	-10.8267
조직	-10.827
▁가져	-10.827
사흘	-10.827
▁명동	-10.8272
만의	-10.8277
▁작년보다	-10.8281
▁갤럭시	-10.8285
2025	-10.8286
▁양돈농장	-10.8286
朴	-10.8289
앵커	-10.8289
▁엄	-10.829
▁드러나	-10.8291
▁누리꾼	-10.8293
▁아프다	-10.8293
▁현장서	-10.8295
▁묻자	-10.8295
퇴임	-10.8295
▁명예교수	-10.8295
▁팝업스토어	-10.8297
▁양평군	-10.8298
▁무효	-10.83
▁특별공급	-10.8306
▁바디프랜드	-10.8306
돼지	-10.8306
펜스	-10.8308
▁페이스북	-10.8315
▁한라산	-10.8315
▁금융권	-10.8317
▁호평	-10.8319
▁상환	-10.8319
시사	-10.8325
행위	-10.8325
지원금	-10.8325
▁정기	-10.8331
▁딱	-10.8332
▁문자	-10.8334
▁항소심서	-10.834
▁공기업	-10.8341
▁발인	-10.8341
52	-10.8345
▁낙찰	-10.8347
▁납치	-10.8353
▁비밀	-10.8359
1000	-10.8359
해요	-10.8364
골프	-10.8364
위로	-10.8368
▁대상자	-10.8368
▁말까지	-10.8371
▁낮다	-10.8371
28	-10.8374
▁스타필드	-10.8379
명에게	-10.838
▁설악산	-10.838
검색	-10.838
▁인간	-10.8384
▁추위	-10.8386
▁꼼수	-10.8395
아버지	-10.8395
이나	-10.8395
▁정리	-10.8397
등교	-10.8397
조정	-10.8398
▁이용객	-10.8398
▁김천	-10.8402
순	-10.8402
▁알아	-10.8411
공직선거법	-10.8413
아베	-10.8414
특혜	-10.8415
이탈리아	-10.8415
▁증세	-10.8415
삼척	-10.8416
▁2/3	-10.8417
▁기재차관	-10.8418
▁룸살롱	-10.8418
특고	-10.8419
▁존재	-10.8419
하러	-10.842
야권	-10.8422
▁스트레스	-10.8423
▁기념행사	-10.8424
▁조희연	-10.8428
▁국감장서	-10.8428
▁혼자	-10.8428
▁완주군	-10.8429
▁하나금융	-10.8429
편의점	-10.8431
▁커진	-10.8432
▁비싼	-10.8432
▁지켜야	-10.8438
▁에디션	-10.8439
▁종로	-10.844
▁수령	-10.844
담	-10.8441
▁기보	-10.8444
전화	-10.845
▁크리에이터	-10.8455
호남	-10.846
▁이혁진	-10.8463
▁풀	-10.8464
▁고용보험	-10.8465
▁예보	-10.8469
▁상위	-10.8471
▁직전	-10.8472
▁성장세	-10.8472
▁조달청	-10.8473
연구소	-10.848
▁재유행	-10.8482
▁고성군	-10.8484
입장	-10.8486
▁따뜻한	-10.8487
▁작전	-10.8489
▁포스터	-10.849
▁손님	-10.8494
I	-10.8495
▁불법촬영	-10.8495
▁호남	-10.8501
▁롯데택배	-10.8505
▁신장	-10.8509
터키	-10.851
▁유전자	-10.851
포항	-10.8511
▁산사태	-10.8518
대형	-10.852
▁중지	-10.8522
▁해결책	-10.8522
스마트폰	-10.8524
▁토	-10.8532
▁동영상	-10.8533
▁임실군	-10.8533
▁맹공	-10.8534
팩트체크	-10.8536
▁뿌리	-10.8538
▁두자리	-10.8538
▁운용	-10.8539
이틀째	-10.854
▁열었다	-10.854
▁높다	-10.854
▁크레인	-10.8541
▁취업박람회	-10.8542
▁행정명령	-10.8546
▁성북구	-10.8546
▁퍼포먼스	-10.8549
▁우상호	-10.8549
▁혼조세	-10.8551
라리	-10.8552
▁CGV	-10.8553
▁방어	-10.8556
▁살리기	-10.8558
▁초미세먼지	-10.856
▁워싱턴	-10.8562
▁산하기관	-10.8562
27	-10.8566
▁근절	-10.8568
▁파	-10.8568
▁범행	-10.8569
▁연락	-10.8569
▁성과급	-10.8573
▁대구경북	-10.8574
▁금품	-10.8575
▁완도	-10.8576
복지	-10.8576
▁방통위	-10.8576
▁개인정보	-10.8577
통합	-10.8578
▁정부에	-10.8578
▁검찰개혁	-10.8579
▁배달앱	-10.8579
차세대	-10.8583
▁소독	-10.8585
채용	-10.8586
▁아시아나	-10.8589
룸살롱	-10.8596
▁NO	-10.8597
백만	-10.8599
박스	-10.8603
▁김제	-10.8608
▁납품	-10.8608
▁동일	-10.8609
▁끌고	-10.861
▁뺑소니	-10.8618
▁통치	-10.8623
지하철	-10.8624
절반	-10.8625
▁앞바다	-10.8625
재정	-10.8626
분양	-10.8632
▁추경	-10.8633
광고	-10.8635
▁평화의	-10.8635
▁흐리	-10.8637
▁최고가	-10.864
▁인과관계	-10.8644
▁Inc	-10.8647
▁창원서	-10.865
▁신발	-10.8651
▁당창건	-10.8651
갈	-10.866
▁옆	-10.8661
정치권	-10.8663
▁증폭	-10.8663
갤럭시	-10.8665
▁일손돕기	-10.8666
관악구	-10.8666
프리미엄	-10.8666
박영선	-10.8666
달님	-10.8668
성장	-10.8669
▁모여	-10.8669
방역당국	-10.867
▁75%	-10.8671
▁휠	-10.8671
전선	-10.8671
공모주	-10.8672
▁한눈에	-10.8672
여부	-10.8674
▁감성	-10.8676
제한	-10.8677
▁시범사업	-10.8679
▁인파	-10.8681
▁현대카드	-10.8682
한은	-10.8682
▁11%	-10.8685
이유는	-10.8685
주만에	-10.8687
한국은	-10.8687
애	-10.8688
▁개점	-10.8691
이미	-10.8692
동맹	-10.8696
▁연산	-10.8697
▁상승률	-10.87
▁줄여	-10.8703
▁하남	-10.8704
▁1·2	-10.8704
▁강도	-10.8706
하지만	-10.8706
94	-10.8708
▁아세안	-10.8709
▁성비위	-10.871
▁속초	-10.8713
행정	-10.8719
▁짙	-10.8721
▁무인	-10.8723
▁부패	-10.8725
강화	-10.8732
대법원	-10.8733
▁이탈	-10.8736
▁수수	-10.874
거	-10.8742
300	-10.8743
▁제천	-10.8743
법정	-10.8746
대한	-10.8747
만여	-10.8748
일로	-10.8752
후보	-10.8757
▁경영권	-10.8758
달만에	-10.876
▁화상회의	-10.8761
▁베트남서	-10.8762
더머니	-10.8763
▁원천	-10.8767
임금	-10.8769
▁경기북부	-10.8771
▁어디서	-10.8773
기업인	-10.8775
▁전남대	-10.8777
▁케어	-10.878
문화재단	-10.8784
▁홈쇼핑	-10.879
매직	-10.8791
▁동시에	-10.8791
인국공	-10.8792
▁이라크	-10.8793
▁사라졌다	-10.8793
사흘째	-10.8794
잘못	-10.8795
▁고쳐	-10.8795
▁현실	-10.8796
▁최종범	-10.8797
▁추모식	-10.8798
▁받으세요	-10.8799
▁대가	-10.8799
역대급	-10.8801
친구	-10.8801
▁무대	-10.8802
▁전동차	-10.8802
▁마트	-10.8802
▁돼지	-10.8804
▁자부심	-10.8805
▁영리병원	-10.8805
▁구로구	-10.8807
태국	-10.8807
레	-10.8808
▁다기관염증증후군	-10.881
▁준비하는	-10.8811
▁건설사	-10.8811
▁어디까지	-10.8812
▁동아대	-10.8814
되지	-10.8815
입국	-10.8815
▁까닭은	-10.8817
▁값	-10.8819
▁현실로	-10.8819
▁장학생	-10.8821
▁손흥민	-10.8825
▁낀	-10.8826
▁제약사	-10.8828
▁나는	-10.8829
▁외치는	-10.8831
▁외통위	-10.8831
▁화이자	-10.8834
▁김창룡	-10.8835
증권사	-10.8836
▁사람이	-10.8838
번지	-10.8839
▁1.9%	-10.8841
▁국방위	-10.8842
▁책임자	-10.8842
▁렌터카	-10.8845
▁KF	-10.8846
▁장례식장	-10.885
▁내는	-10.8852
▁특검법	-10.8852
▁박물관	-10.8853
나눔	-10.8862
▁시총	-10.8863
▁태백	-10.8864
▁시중	-10.8865
▁in	-10.8867
▁대박	-10.8871
▁분주	-10.8875
▁두산	-10.8878
▁[300	-10.888
▁매력	-10.8884
수입	-10.8889
▁저축은행	-10.889
▁찬바람	-10.8897
▁회계	-10.89
죽	-10.89
▁발화	-10.8908
프로그램	-10.8909
선박	-10.8911
▁해외주식	-10.8916
송	-10.8918
언	-10.8918
▁족두리봉	-10.892
▁카	-10.8922
▁HDC	-10.8922
▁이성희	-10.8922
▁공동개발	-10.8923
▁총격	-10.8924
CCTV	-10.8924
▁이정수	-10.8925
거나	-10.8925
0	-10.8926
▁권유	-10.8927
▁수강생	-10.8927
▁추행	-10.8928
모델	-10.8928
▁22%	-10.8929
▁서경배	-10.8931
▁고객만족도	-10.8932
▁듣는다	-10.8933
▁강훈식	-10.8934
▁밥	-10.8938
▁실태조사	-10.8938
▁마시는	-10.8939
▁빌라	-10.894
▁코스모스	-10.8941
↑"	-10.8944
▁선처	-10.8946
▁사흘만에	-10.8946
숲	-10.8949
▁잡은	-10.8949
이었다	-10.8949
▁내각	-10.895
▁신용카드	-10.8954
▁산단	-10.8955
▁저조	-10.8955
▁이미지	-10.8956
▁경영진	-10.8957
▁폭언	-10.8959
▁몰래	-10.896
▁조류인플루엔자	-10.896
▁국토위	-10.896
평창	-10.896
▁막힌	-10.8962
▁어느	-10.8964
▁한숨	-10.8965
▁용역	-10.8966
▁향후	-10.8969
▁위안화	-10.897
영월	-10.8971
부적절	-10.8973
▁상품권	-10.8974
▁급여	-10.8979
▁한미동맹	-10.8986
▁국내외	-10.8988
처벌	-10.8993
▁보증	-10.9001
질의에	-10.9005
▁점	-10.9005
위원장	-10.9009
▁수익성	-10.9009
▁항공기	-10.9018
▁속에	-10.902
▁정경심	-10.9023
▁비교	-10.9025
▁관계자들	-10.9025
▁네	-10.9032
▁휘두	-10.9032
예방접종	-10.9033
▁74	-10.9034
위반	-10.9041
금융지주	-10.9042
접촉자	-10.9044
▁호재	-10.9046
사자명예훼손	-10.9047
▁문화예술	-10.9047
▁전에	-10.9048
▁상영	-10.9048
트리플	-10.905
▁없앤다	-10.9051
▁한국조선해양	-10.9051
▁중기중앙회	-10.9051
인육	-10.9052
▁해남군	-10.9052
▁라인업	-10.9054
▁총파업	-10.9054
▁하남시	-10.9055
채용비리	-10.9055
파우치	-10.9055
▁말아야	-10.9056
아동학대	-10.9056
거짓말	-10.9056
행정관	-10.9056
▁한국에	-10.9057
▁경남교육청	-10.9057
상속세	-10.9058
▁조주빈	-10.9058
▁피부	-10.906
▁누락	-10.906
▁여객기	-10.9061
▁과거	-10.9066
체험	-10.9067
▁한강	-10.9068
▁배려	-10.9068
▁도로공사	-10.9068
▁의회	-10.9069
▁융합	-10.9071
▁표류	-10.9073
▁합참	-10.9075
▁최하위	-10.9075
▁임시	-10.9075
▁수상작	-10.9077
▁수성	-10.9078
▁청원에	-10.9079
▁낭비	-10.9079
▁나주시	-10.908
▁아제르	-10.908
▁호전	-10.9083
▁통영	-10.9084
지지	-10.9085
▁LCC	-10.9085
의정부	-10.9086
화상	-10.9088
...50	-10.9091
▁범위	-10.9091
▁동두천	-10.9096
섬	-10.91
을까	-10.9105
▁안했다	-10.9106
▁업종	-10.9109
분만에	-10.9113
▁병무청	-10.9113
▁아직도	-10.9116
성과	-10.9123
▁가스	-10.9124
농가	-10.9126
화천	-10.9134
▁자릿수로	-10.914
차전지	-10.9144
▁위탁	-10.9144
▁포천시	-10.915
헬기	-10.9151
KBS	-10.9153
▁숙박	-10.9156
이젠	-10.9162
중기	-10.9162
▁빌딩	-10.9164
김용민	-10.9167
▁우	-10.9168
▁원주서	-10.9168
▁인생	-10.9168
▁남원시	-10.9174
▁대중교통	-10.9176
▁채용비리	-10.9177
채널	-10.9179
왕	-10.9179
착한	-10.918
▁눈에	-10.9181
출발	-10.9183
사랑하는	-10.9185
임대차	-10.9185
인공지능	-10.9188
▁무려	-10.9191
▁상실	-10.9191
▁관리소장	-10.9191
▁때린	-10.9191
중기부	-10.9193
▁교전	-10.9193
무료	-10.9193
▁메모	-10.9196
▁충북교육청	-10.9199
▁이용수	-10.9199
▁총동원	-10.9204
▁[1	-10.9205
▁항공사	-10.9206
▁감형	-10.9207
한글	-10.9211
▁봐야	-10.9214
▁닭	-10.9216
▁신협	-10.9218
하니	-10.9218
▁과방위	-10.9219
안심	-10.922
용인	-10.9221
▁상담회	-10.9222
▁제주시	-10.9222
쓰는	-10.9222
▁1300	-10.9225
▁보완	-10.9226
▁구한	-10.9226
▁지방세	-10.9226
적자	-10.9227
▁악성	-10.9227
PC	-10.9228
▁160	-10.923
▁몇	-10.9233
▁한마디에	-10.9236
이라는	-10.9243
법적	-10.9245
▁민주화	-10.9251
▁김경수	-10.9251
▁강풍	-10.9256
▁발전소	-10.9257
의장	-10.9258
▁구현	-10.9258
건강한	-10.9259
▁참석자들	-10.926
▁시점	-10.9262
▁빌보드	-10.9262
▁반토막	-10.9263
예술	-10.9264
▁보도에	-10.9266
▁센터	-10.9268
어르신	-10.9269
유튜브	-10.9272
사인	-10.9272
...100	-10.9272
지역화폐	-10.9273
▁수위	-10.9279
HOT	-10.928
점검	-10.9282
▁역사적	-10.9283
▁잡아	-10.9283
마케팅	-10.9283
▁하동	-10.9283
확산	-10.9286
▁삼	-10.9293
격차	-10.9293
재훈	-10.9295
▁기업으로	-10.9297
▁힐스테이트	-10.9297
밀	-10.9299
▁입자	-10.9299
▁우리나라	-10.9303
맹탕	-10.9306
▁들	-10.9307
감염병	-10.9309
▁임대차	-10.931
▁부탁	-10.9311
▁봤다	-10.9315
協	-10.9315
챈	-10.9315
▁출몰	-10.9315
▁몰렸다	-10.9315
▁전라남도	-10.9315
▁국회의장	-10.9316
▁충분	-10.9317
▁만족도	-10.9317
묻지마	-10.9319
▁발대식	-10.9321
16	-10.9321
▁허리케인	-10.9321
▁모인	-10.9322
7000	-10.9323
▁이이효재	-10.9326
▁탈모	-10.9326
▁전남지사	-10.9327
▁국립	-10.9328
▁미분양	-10.9328
▁후유증	-10.933
▁안된다	-10.9331
▁피치	-10.9334
▁특별방역	-10.9334
▁북부	-10.9334
▁빙그레	-10.9336
▁중반	-10.9336
▁생산량	-10.9339
▁시험대	-10.934
▁능력	-10.9341
▁혈액	-10.9342
▁먹는	-10.9342
▁수소충전소	-10.9345
▁VIP	-10.9345
▁이끌	-10.9345
부정	-10.9351
▁무차별	-10.9351
이라고	-10.9355
소득	-10.936
▁카카오뱅크	-10.936
▁창	-10.9361
▁W	-10.9365
경제성	-10.9365
▁처방	-10.9368
▁배민	-10.937
하려면	-10.9372
▁몰카	-10.9372
▁선호	-10.9373
▁벌초	-10.9375
▁정면	-10.9378
▁중소	-10.9381
▁해외여행	-10.9381
▁입국자	-10.9382
▁도쿄올림픽	-10.9386
▁가나	-10.9388
▁송도	-10.9389
▁종부세	-10.9396
▁재편	-10.9397
▁영양	-10.9398
▁탈당에	-10.9403
Lin	-10.9407
대는	-10.9407
▁연금	-10.9409
▁감소세	-10.9411
한국인	-10.9413
▁시흥시	-10.9413
맛	-10.9419
▁공주	-10.942
대금	-10.942
의협	-10.942
▁실태	-10.9422
▁기념촬영	-10.9431
하나님	-10.9433
요양원	-10.9434
SDS	-10.9438
▁방문자	-10.9439
사전	-10.9445
▁거짓	-10.9448
금지	-10.9449
녹십자	-10.945
∙	-10.945
▁즐기세요	-10.945
매체	-10.945
▁개강	-10.9451
▁드라마	-10.9451
▁뭘	-10.9452
▁남기고	-10.9452
쑥	-10.9453
▁했는데	-10.9453
▁성남	-10.9453
▁병역거부	-10.9454
▁문성혁	-10.9454
평화의	-10.9454
▁낮춘다	-10.9455
▁지키는	-10.9456
▁청주서	-10.9456
!]	-10.9456
...14	-10.9457
▁최기영	-10.9458
소방서	-10.9458
금융그룹	-10.946
▁맞다	-10.946
김여정	-10.946
MBC	-10.9461
통제	-10.9461
▁경품	-10.9461
▁기름	-10.9465
▁기술수출	-10.9466
도쿄	-10.9467
▁기술로	-10.9467
▁발길	-10.9467
징계	-10.9467
▁대사관	-10.9469
▁취	-10.9474
내부	-10.9475
▁등락	-10.9476
▁전세대책	-10.9476
▁정영채	-10.9476
cm	-10.9484
▁닷새	-10.9485
▁서류	-10.9487
▁창업기업	-10.9487
▁둘	-10.9488
▁고대	-10.9488
▁정선군	-10.949
대만	-10.9493
▁어	-10.9493
▁8000	-10.9493
▁성인	-10.9493
▁옥중	-10.9496
▁法	-10.9502
커피	-10.9514
▁남매	-10.9514
가치	-10.9514
일주일	-10.9519
CU	-10.952
▁벗	-10.9521
한화	-10.9526
▁최대집	-10.9528
▁유도	-10.9528
추진	-10.9533
항공	-10.9535
달간	-10.9535
커머스	-10.9543
제약	-10.9544
▁투명	-10.9548
...40	-10.9556
▁까닭	-10.9559
▁투	-10.956
▁응시	-10.9562
▁통	-10.9564
같이	-10.9565
접대	-10.9567
밥	-10.9569
▁덕분에	-10.957
▁용산구	-10.9571
▁상속	-10.9572
▁상대로	-10.9573
▁클래스	-10.9574
▁나무	-10.9575
경고	-10.9575
▁12%	-10.9576
▁권력	-10.9577
고속도로	-10.9578
▁사인	-10.958
▁트럼프와	-10.958
▁합류	-10.9583
댐	-10.9584
▁맞나	-10.9588
▁써야	-10.9588
▁많고	-10.9589
노선	-10.9589
▁경주시	-10.959
▁잠긴	-10.959
올리브영	-10.959
클래스	-10.9591
찬홈	-10.9592
▁발생한	-10.9594
▁것은	-10.9594
▁다짐	-10.9596
터널	-10.9596
▁연체율	-10.9597
소부장	-10.9598
▁한정애	-10.9598
▁에쓰오일	-10.96
▁유발	-10.96
▁나도	-10.96
사우나	-10.96
▁교각	-10.96
이상직	-10.9601
▁담합	-10.9601
▁웹	-10.9604
▁산학협력	-10.9604
▁심리	-10.9605
▁공공와이파이	-10.9607
▁해경청장	-10.9609
개장	-10.961
▁세븐일레븐	-10.961
▁김영춘	-10.961
▁철회해야	-10.9612
▁보건	-10.9618
부하	-10.9619
월말	-10.9622
벤처	-10.9624
▁비싸	-10.9628
▁강소기업	-10.9628
중학생	-10.9629
▁오염	-10.9631
내년부터	-10.9633
▁어워즈	-10.9635
▁표절	-10.9636
▁예탁원	-10.9637
▁앤트그룹	-10.9637
▁남녀	-10.9637
입	-10.9641
▁뜨거운	-10.9647
▁여성들	-10.9649
▁원인은	-10.9651
▁중학교	-10.9656
과거	-10.9657
차기	-10.9661
▁방출	-10.9663
▁시정	-10.9664
▁경기부양책	-10.9664
▁청신호	-10.9665
▁상온	-10.967
▁핀테크	-10.9676
년내	-10.968
에만	-10.9686
▁오프라인	-10.9688
↓...	-10.9691
당한	-10.9693
▁새만금	-10.9699
사용	-10.97
억짜리	-10.97
▁역학조사	-10.9701
수도	-10.9709
▁뷰티	-10.9711
지지율	-10.9711
법안	-10.9711
▁해체	-10.9716
곳서	-10.9717
페이	-10.972
▁편	-10.9721
하늘	-10.9723
▁향	-10.9724
깊은	-10.9724
▁노린다	-10.9725
▁붙잡혀	-10.9726
▁높아져	-10.9726
▁무너져	-10.9727
▁나타난	-10.9727
핵	-10.9727
▁치명적	-10.9728
▁쏟아진	-10.9728
▁도시대상	-10.973
▁가능해진다	-10.9731
▁밝혀야	-10.9731
▁내외	-10.9731
▁김용범	-10.9732
▁임용시험	-10.9732
▁진천	-10.9733
▁탈바꿈	-10.9736
빨간불	-10.9736
식약처	-10.9737
누계	-10.9737
▁송철호	-10.9737
▁올레드	-10.9739
前	-10.9741
▁소환조사	-10.9741
▁가슴	-10.9742
▁선거운동	-10.9744
▁하이브리드	-10.9744
~30	-10.9744
▁유착	-10.9746
▁결단	-10.9747
▁수칙	-10.9748
▁KOTRA	-10.9748
▁국내선	-10.9748
▁당해	-10.9749
▁영어	-10.9751
▁“3	-10.9751
▁경선	-10.9752
진주	-10.9756
▁구광모	-10.9757
▁신한금투	-10.9757
▁격전지	-10.9758
▁스토킹	-10.9758
▁키움증권	-10.9759
토론회	-10.9759
메뉴	-10.9759
▁급식	-10.976
▁활력	-10.9761
▁기부금	-10.9762
▁단기	-10.9764
▁무허가	-10.9764
▁재앙	-10.9766
▁말에	-10.9766
▁시험지	-10.9769
▁각국	-10.9771
▁엔씨소프트	-10.9771
색	-10.9771
코로나가	-10.9773
상담	-10.9773
이라도	-10.9773
▁수출기업	-10.9776
▁법무장관	-10.9778
▁에듀윌	-10.9783
승객	-10.9785
▁집행정지	-10.9785
▁신보	-10.9786
교육감	-10.9787
O	-10.9788
독도의	-10.9788
22	-10.9791
훈련	-10.9793
▁주는	-10.9795
하려	-10.98
캐피탈	-10.9801
▁중심으로	-10.9802
▁제조사	-10.9804
▁은행권	-10.9805
▁365	-10.9809
▁계좌	-10.9811
▁첫발	-10.9812
▁카드사	-10.9815
▁54%	-10.9815
전시회	-10.9815
▁고공행진	-10.9822
▁만기	-10.9825
▁사무총장에	-10.983
▁봉화	-10.9833
▁다우	-10.9833
▁암시	-10.9833
제로	-10.9834
근로자	-10.9835
져	-10.9841
▁죄	-10.9849
▁편성	-10.985
스테이	-10.9861
임	-10.9862
▁전북대	-10.9863
▁고급	-10.9866
하우시스	-10.9866
▁업데이트	-10.9866
▁백신접종	-10.9866
▁무료회원	-10.9867
▁3/4	-10.9868
▁상온노출	-10.9868
ET	-10.9869
▁피랍	-10.9869
▁다음날	-10.9871
수술	-10.9875
▁나오면	-10.9876
횡성	-10.9877
▁대체복무	-10.9878
▁소외	-10.9878
▁협정	-10.9882
▁재봉쇄	-10.9882
중저가	-10.9883
비핵화	-10.9883
쿠팡	-10.9883
명예훼손	-10.9884
족	-10.9884
80	-10.9884
수소경제	-10.9886
▁문제로	-10.9886
▁모아	-10.9887
▁아프간	-10.9891
▁부산교육청	-10.9892
▁상시	-10.9894
▁카카오페이	-10.9896
▁네티즌	-10.9903
급등	-10.9905
막	-10.9906
성폭력	-10.9907
▁김은혜	-10.9907
▁빨라	-10.9909
▁유시민	-10.991
▁지명	-10.991
▁비슷	-10.9912
대화	-10.9913
▁내린	-10.9914
▁미얀마	-10.9914
▁동물	-10.9915
▁김무성	-10.9916
▁행장	-10.9917
▁괴산	-10.9918
한수원	-10.9918
▁내륙	-10.992
▁1400	-10.9923
▁180	-10.9927
연금	-10.9928
보호	-10.9932
▁메르켈	-10.9932
▁南	-10.9936
▁숨은	-10.9937
▁법인세	-10.9941
▁초유	-10.9942
주요	-10.9945
▁해당	-10.9951
▁95	-10.9956
▁전세금	-10.9959
"[	-10.9961
동안	-10.9961
▁착한	-10.9963
확실한	-10.997
스타	-10.9976
▁죽	-10.9978
▁여파에	-10.9982
▁하천	-10.9982
건은	-10.9984
비즈	-10.9986
▁나스닥	-10.9986
▁아트	-10.9993
▁맞	-10.9993
▁영	-10.9996
39	-11
▁금천구	-11.0001
▁종로구	-11.0005
기록	-11.0006
▁동서발전	-11.0006
▁딛고	-11.0009
▁들어간	-11.0012
▁보인다	-11.0012
대신	-11.0012
▁현대엔지니어링	-11.0012
▁무증상	-11.0012
▁물놀이	-11.0014
▁크다	-11.0014
▁14%	-11.0015
▁평양	-11.0017
▁반독점	-11.0017
감독	-11.0018
조건	-11.0018
▁부산진구	-11.0019
특별	-11.0019
단속	-11.0021
▁가열	-11.0021
▁박양우	-11.0021
▁구독	-11.0021
▁현실화율	-11.0022
▁열고	-11.0023
기필	-11.0023
빚	-11.0024
▁대마	-11.0024
▁인센티브	-11.0025
폐기물	-11.0025
거짓	-11.0027
▁싸게	-11.0027
힐스테이트	-11.0028
커밍아웃	-11.0028
위안부	-11.0028
나이지리아	-11.0029
ICT	-11.0029
막판	-11.0029
반려동물	-11.0029
▁현상	-11.003
▁은퇴	-11.0031
▁부산항만공사	-11.0033
그리스	-11.0035
▁잔치	-11.0035
천안	-11.0037
눈물	-11.0038
▁대결	-11.004
▁반발에	-11.004
▁브로커	-11.0047
역세권	-11.0047
산재	-11.0049
▁지속가능	-11.0051
▁적어	-11.0051
▁문체부	-11.0052
▁정의연	-11.0055
▁양극화	-11.0058
▁조금	-11.0062
군기	-11.0063
▁추이	-11.0065
▁장군	-11.0068
▁오래	-11.0069
▁양평	-11.0073
▁키우는	-11.0074
▁옥상	-11.008
▁영화관	-11.0086
▁협의체	-11.0094
▁"11	-11.0095
▁이례적	-11.0098
▁특위	-11.0101
정부가	-11.0103
전세계	-11.011
▁도서	-11.0118
▁신차	-11.012
ed	-11.0121
방식	-11.0125
▁솜방망이	-11.0126
경찰서	-11.0133
현재	-11.0134
▁모범	-11.0134
기온	-11.0138
▁별도	-11.0139
▁세종대	-11.0139
▁담아	-11.014
...21	-11.014
골	-11.0141
▁한국철도	-11.0141
▁기술주	-11.0141
오프	-11.0143
앞으로	-11.0145
▁7000	-11.0147
냥	-11.0148
▁수소경제	-11.0152
▁생긴다	-11.0153
▁쏟아져	-11.0155
▁들어선다	-11.0155
▁수상한	-11.0156
▁오비맥주	-11.0157
▁터진	-11.0158
▁던진	-11.0158
▁마지막날	-11.0158
▁함남	-11.0159
디지털이노베이션	-11.016
▁공식화	-11.016
▁겐조	-11.0161
▁참변	-11.0161
▁퇴치	-11.0161
▁아이파크	-11.0163
▁막자	-11.0163
▁전남교육청	-11.0164
▁빠르게	-11.0165
▁멘토링	-11.0168
▁대량	-11.0168
▁때리기	-11.0169
▁피켓	-11.017
▁파문	-11.017
▁느낌	-11.0172
▁돋보기	-11.0172
▁쾌거	-11.0174
▁남북관계	-11.0174
▁신체	-11.0174
미투	-11.0176
▁특허청	-11.0177
▁한국전쟁	-11.018
▁가지	-11.0186
▁조폐공사	-11.0187
▁외교장관	-11.0187
▁한국행	-11.0188
▁해외입국자	-11.019
▁안착	-11.019
기대	-11.0192
바다	-11.0192
2023	-11.0192
▁이혼	-11.0192
신혼부부	-11.0194
▁의류	-11.0195
▁일가	-11.0196
▁전량	-11.0196
▁한국서	-11.0197
▁중단해야	-11.0197
▁간판	-11.0198
▁FTA	-11.0202
▁대북	-11.0203
▁똘마니	-11.0205
▁넷마블	-11.0205
▁블랙핑크	-11.0205
▁제일	-11.0206
▁잇는	-11.0209
▁있다면	-11.0213
▁일반인	-11.022
▁폐	-11.0223
▁원화	-11.0226
▁송현동	-11.0228
금융위	-11.0229
▁총기	-11.0233
소방	-11.0234
새벽	-11.0237
▁신고가	-11.0238
▁동선	-11.0238
▁전문직	-11.024
벌	-11.0251
시민들	-11.0253
▁풍성	-11.026
▁가족모임	-11.0268
꿈	-11.0273
▁추도식	-11.0274
령	-11.0275
폐쇄	-11.0277
뭐가	-11.0279
▁홍성	-11.028
▁외인	-11.028
▁줘	-11.0282
▁박수	-11.0285
특파원	-11.0285
▁옹호	-11.0287
▁터널	-11.0288
산단	-11.0291
▁연방대법	-11.0292
▁미중	-11.0292
▁승부	-11.0296
▁EPS	-11.0301
▁원주시	-11.0301
▁남았다	-11.0301
▁숙인	-11.0302
▁발탁	-11.0302
▁병행	-11.0302
▁만들겠다	-11.0302
▁풀려	-11.0303
▁정부는	-11.0305
▁스트롱	-11.0305
▁만들자	-11.0308
▁독려	-11.0308
▁성황리	-11.0309
시티	-11.0309
▁차량에	-11.031
최초	-11.0314
▁개발사업	-11.0314
▁서울대공원	-11.0316
▁도발	-11.0316
정원	-11.0316
동료	-11.0318
만원부터	-11.0319
▁잡고	-11.0321
낙태	-11.0322
▁비판한	-11.0322
▁소멸	-11.0322
▁캄보디아	-11.0322
카메라	-11.0323
지인모임	-11.0324
▁채용설명회	-11.0324
맞춤형	-11.0326
▁공공주택	-11.0327
▁행복주택	-11.0329
▁KCC	-11.0329
산업부	-11.0331
▁어린	-11.0334
▁위원회	-11.0335
기자의	-11.0338
▁최재성	-11.0338
▁완벽	-11.0338
▁찍어	-11.0341
▁안한다	-11.0341
▁대치동	-11.0341
▁면적	-11.0343
▁청년위	-11.0345
▁셀프	-11.0348
공시가	-11.0355
▁굴착기	-11.0355
▁민간인	-11.0357
구하라	-11.0361
▁경력	-11.0363
▁국정농단	-11.0367
▁아이돌	-11.0368
l	-11.0372
코로나에	-11.0376
▁아이스크림	-11.0376
▁차별화	-11.0379
▁차량시위	-11.0384
▁윤건영	-11.0389
▁전세대출	-11.0397
명대로	-11.0398
금리	-11.0401
년생	-11.0402
▁금고	-11.0403
▁금융사기	-11.0403
▁전작권	-11.0406
인기	-11.0407
▁男	-11.0414
▁먹거리	-11.0415
지원센터	-11.0418
▁한마디	-11.0418
▁세일	-11.0421
▁해수욕장	-11.0425
▁공모가	-11.0428
신문	-11.0435
▁저녁	-11.0439
▁건축	-11.0439
팩토리	-11.0444
▁코로나가	-11.0445
▁보존	-11.0445
잇	-11.0447
▁필요하다	-11.045
▁검덕지구	-11.045
▁맑아져	-11.0451
▁사임	-11.0452
▁찬스	-11.0453
고발	-11.0453
▁높이는	-11.0455
▁포획	-11.0455
▁고유정	-11.0456
▁종합감사	-11.0457
▁홈앤쇼핑	-11.0459
▁공기청정기	-11.0459
▁난민	-11.046
▁보름달	-11.0461
기본소득	-11.0461
▁불씨	-11.0462
▁매도	-11.0463
▁헬릭스미스	-11.0463
▁페어	-11.0467
▁칭찬	-11.047
▁한자리에	-11.0471
▁기조	-11.0471
헤럴드	-11.0471
▁랜드마크	-11.0472
▁추월	-11.0474
▁업그레이드	-11.0474
▁민주평통	-11.0474
▁혼잡	-11.0474
▁산발감염	-11.0475
이동	-11.0475
나스닥	-11.0475
인과관계	-11.0476
▁북측	-11.0476
빠른	-11.0476
OECD	-11.0476
▁정선	-11.0476
▁완화에	-11.0479
중대	-11.0479
▁기회로	-11.048
▁안성시	-11.048
동물	-11.0482
▁지식산업센터	-11.0482
▁조업	-11.0482
▁산은	-11.0486
김태년	-11.0487
기고	-11.0487
▁자영업자	-11.0488
▁이동하는	-11.0491
강제징용	-11.0492
찬성	-11.0492
▁천	-11.0493
▁투기	-11.0494
교통	-11.0494
▁명백	-11.0501
▁쇼	-11.0502
▁SSG	-11.0506
수당	-11.0507
▁고층	-11.0508
▁보이는	-11.051
▁파격	-11.0511
▁순항	-11.0514
▁지표	-11.0516
▁전복	-11.0518
▁미디어	-11.052
▁서울교육청	-11.0521
▁전해	-11.0521
▁보증금	-11.0523
매매	-11.0523
▁알고보니	-11.0527
▁강조한	-11.0528
▁노동자들	-11.053
다음주	-11.0531
리그	-11.0533
▁심	-11.0538
▁비건	-11.0541
▁기획	-11.0542
ON	-11.0543
▁9000	-11.0545
대통령이	-11.0547
▁달려	-11.0549
▁당진	-11.0553
▁의뢰	-11.0553
人	-11.0556
▁변	-11.0557
?...“	-11.0557
봉쇄	-11.0557
▁부산지역	-11.0557
김남국	-11.056
상장	-11.0565
▁긍정	-11.0566
▁짝퉁	-11.0567
특	-11.0569
▁연이	-11.0577
독	-11.0579
우리가	-11.058
정치인	-11.0582
노래방	-11.0585
▁힘들다	-11.0586
▁진심	-11.0588
키트	-11.0592
▁빅	-11.0593
▁SC	-11.0594
▁펭수	-11.0595
▁꺼내	-11.0596
여론조사	-11.0597
▁황당	-11.0598
어보드	-11.0602
▁즐겨요	-11.0602
이노텍	-11.0603
▁경제성장률	-11.0603
▁막아야	-11.0604
▁닫	-11.0606
▁갖고	-11.0606
아트	-11.0607
시선집중	-11.0608
▁늘어나	-11.0611
▁총출동	-11.0611
의원들	-11.0614
▁오세요	-11.0614
▁유명순	-11.0615
▁넘긴	-11.0615
▁35%	-11.0616
▁뇌	-11.0617
▁공정위원장	-11.0618
의료진	-11.0619
역량	-11.0622
구속	-11.0622
전환	-11.0624
▁해외진출	-11.0625
▁발사	-11.0625
아내	-11.0627
꼼수	-11.0629
의사국시	-11.063
▁팀	-11.063
연관성	-11.063
▁체포영장	-11.063
이태원	-11.0631
ASF	-11.0631
집단면역	-11.0631
▁신작	-11.0631
▁해도	-11.0633
▁장수군	-11.0637
파리	-11.0639
▁기지개	-11.064
▁신재생에너지	-11.064
▁사옥	-11.064
▁영원	-11.0642
▁일시	-11.065
▁법률	-11.0654
▁양구	-11.066
▁해남	-11.066
▁최신	-11.066
▁수사해야	-11.0661
주는	-11.0661
풀	-11.0664
▁연평도	-11.0664
▁170	-11.0666
교육청	-11.0668
▁사망에	-11.0669
▁완주	-11.067
협상	-11.0671
▁확대해야	-11.0671
▁감자	-11.0675
▁실효성	-11.0675
년만	-11.0676
▁구미시	-11.0677
▁밀	-11.068
▁해달라	-11.0681
▁지갑	-11.0682
▁감정원	-11.0683
▁채무	-11.0683
25,	-11.0686
▁울산시장	-11.0686
대에	-11.0686
-1	-11.0693
▁2024	-11.0694
▁특례시	-11.0695
세요	-11.0696
미니	-11.0701
정비	-11.0703
▁밑	-11.0709
▁촉진	-11.0715
▁자식	-11.0715
▁행정부	-11.0716
진화	-11.0722
▁계승	-11.0723
오늘은	-11.0727
양성	-11.0728
기기	-11.0728
과학	-11.0731
▁열흘	-11.0733
고맙습니다	-11.0736
▁바꾸	-11.0742
▁가능성은	-11.0745
마약	-11.0745
지침	-11.0746
▁침수	-11.0747
▁다르다	-11.0748
크	-11.0748
다가	-11.0749
▁유공	-11.0749
'·'	-11.0752
▁겨냥한	-11.0757
▁탈락	-11.0757
▁밝힌	-11.0757
▁밝혔다	-11.0757
근거	-11.0757
▁만났다	-11.0757
▁외친	-11.0758
없다	-11.076
▁조율	-11.076
▁광진구	-11.076
▁16%	-11.076
젊은	-11.0761
▁개그맨	-11.0761
▁협조하라	-11.0761
▁롯데제과	-11.0763
그렇게	-11.0763
▁퇴직	-11.0765
▁본인	-11.0765
▁경청하	-11.0766
▁로드맵	-11.0767
▁고도화	-11.0767
▁기승	-11.0767
▁포상금	-11.0767
▁결실	-11.0769
▁취급	-11.0769
▁농어촌공사	-11.0769
▁부정수급	-11.0771
'..	-11.0771
▁관행	-11.0772
▁노리	-11.0773
만여명	-11.0773
관광지	-11.0774
▁모친	-11.0774
▁효능	-11.0774
▁이슬람	-11.0775
호주	-11.0775
▁상업시설	-11.0775
▁8%	-11.0775
▁이어가	-11.0776
▁희생	-11.0779
반발	-11.0781
▁순직	-11.0782
%	-11.0783
▁성분	-11.0784
정신병원	-11.0784
솜방망이	-11.0785
▁최후	-11.0786
포스코	-11.0786
퍼	-11.0786
▁소셜	-11.0786
▁칠레	-11.0787
실태	-11.0787
▁청년들	-11.0787
국무부	-11.0787
박능후	-11.0787
▁독서	-11.0787
하반기	-11.0787
활용	-11.0787
▁있게	-11.0792
연임	-11.0794
▁흔들	-11.0795
안보	-11.0797
▁카톡	-11.0797
재차	-11.0798
▁伊	-11.08
▁조선일보	-11.0802
▁뮤지컬	-11.0804
▁대상에	-11.0806
···'	-11.0807
사업자	-11.0808
▁재벌	-11.0809
▁금융시장	-11.081
▁남해	-11.0811
▁DNA	-11.0812
기능	-11.0812
▁욕설	-11.0814
▁실손보험	-11.0816
▁OLED	-11.0816
▁늘어나는	-11.0816
▁되길	-11.0818
원장	-11.0819
▁덕	-11.0819
▁미뤄	-11.0819
연구	-11.0824
▁월요일	-11.0825
기업은행	-11.0825
▁임대차법	-11.0827
부대	-11.0829
▁프리	-11.0833
▁톡톡	-11.0845
▁투어	-11.0849
명씩	-11.0851
교도소	-11.0853
성훈	-11.0855
▁술집	-11.0856
▁'100	-11.0857
▁잡혀	-11.0858
▁자수	-11.0868
▁배후	-11.0873
▁치열	-11.0873
한다고	-11.0874
▁체납자	-11.0875
▁우리가	-11.0886
직접	-11.0886
▁통장	-11.0893
▁해석	-11.0898
▁제사	-11.09
▁표심	-11.0903
▁특판	-11.091
▁어디에	-11.0912
▁Qtrly	-11.0912
▁통화스와프	-11.0912
점잖	-11.0912
▁쏜다	-11.0912
모멘트	-11.0912
▁극찬	-11.0912
▁키웠다	-11.0912
▁울린	-11.0912
관왕	-11.0913
▁잡았다	-11.0917
▁폐사	-11.0918
▁폐막	-11.0919
▁85	-11.092
▁김상훈	-11.0921
▁서울남부지검장	-11.0923
▁엄벌	-11.0923
인제	-11.0924
▁우리카드	-11.0924
▁오세훈	-11.0924
구조	-11.0924
▁김성	-11.0925
▁체크카드	-11.0925
▁종교	-11.0926
▁종근당	-11.0927
▁요인	-11.0927
▁꼴찌	-11.0928
▁고집	-11.093
▁과천	-11.0931
▁트램	-11.0931
▁요청에	-11.0933
▁철원	-11.0933
▁보령	-11.0934
▁발레학원	-11.0934
특허	-11.0935
▁협약식	-11.0935
▁만큼	-11.0938
▁농해수위	-11.0939
▁상승폭	-11.0939
▁날짜	-11.094
▁사안	-11.0941
▁기념촬영하는	-11.0942
▁한달간	-11.0944
성폭행	-11.0944
아세안	-11.0944
정경심	-11.0944
나흘째	-11.0945
▁두산퓨얼셀	-11.0945
▁신한금융투자	-11.0945
윤석헌	-11.0945
▁각종	-11.0946
▁기안기금	-11.0947
▁공공재건축	-11.0947
▁뛰어	-11.0948
내주	-11.0952
▁한일관계	-11.0954
?'...	-11.0954
▁연어	-11.0954
사자	-11.0956
업무상	-11.0956
▁심판	-11.0956
하기로	-11.0957
단신	-11.0958
달새	-11.096
폭	-11.0961
▁공동조사	-11.0964
▁가세	-11.0964
부천	-11.097
▁부처	-11.0971
전시	-11.0971
▁성범죄자	-11.0977
안정적	-11.0977
▁거주자	-11.0978
▁북미	-11.0979
▁중재	-11.0982
기업규제	-11.0983
패	-11.0984
▁압력	-11.0984
각	-11.0985
▁인권침해	-11.0986
▁음악회	-11.0988
검	-11.0993
폭력	-11.0994
전문가들	-11.0994
림	-11.0994
태풍	-11.0995
▁마켓컬리	-11.0998
▁중단할	-11.0998
오는	-11.1001
▁보기	-11.1004
▁휴게소	-11.1006
...23	-11.1007
▁김상	-11.101
▁삼성서울병원	-11.1015
-19	-11.1017
▁가짜뉴스	-11.102
스마트시티	-11.1021
▁자율	-11.1023
▁전보다	-11.1024
▁들썩	-11.1024
▁퇴임	-11.1024
내일부터	-11.1025
▁충주시	-11.103
▁아무	-11.1031
▁언론사	-11.1031
고인	-11.1034
▁희귀	-11.1037
▁못했다	-11.1038
▁당장	-11.1039
▁거세	-11.1042
▁못내	-11.1044
▁거부한	-11.1044
▁신부	-11.1046
기사	-11.1049
▁아파	-11.1053
▁잊지	-11.1055
▁재심	-11.1056
▁곤란	-11.1057
▁중소형	-11.1058
읍	-11.1061
결제	-11.1064
▁재생	-11.1065
엠	-11.1066
케미칼	-11.1066
룸	-11.1066
▁축복	-11.1067
▁KDI	-11.1069
▁노린	-11.1069
양양	-11.107
▁홍	-11.1072
▁통했다	-11.1072
▁찌른	-11.1072
Y	-11.1073
폭탄	-11.1073
▁만나요	-11.1075
▁출원	-11.1076
▁현대로템	-11.1076
▁지키기	-11.1076
▁포스코인터	-11.1076
▁최인호	-11.1076
▁몰아주기	-11.1077
▁18%	-11.1077
었다	-11.1077
▁군포시	-11.1078
전망	-11.1078
▁자금조달	-11.108
▁홍익표	-11.108
▁검체	-11.108
▁있으면	-11.1081
▁고위험	-11.1081
팩트	-11.1085
▁컨테이너	-11.1085
▁모자	-11.1085
▁미술	-11.1086
▁자랑	-11.1088
▁윤호중	-11.1088
▁베팅	-11.1089
▁노벨경제학상	-11.1091
▁김명수	-11.1091
▁받겠다	-11.1093
▁무마	-11.1093
초일류	-11.1095
▁분실	-11.1095
▁대법원장	-11.1096
▁승강기	-11.1096
인텔	-11.1097
▁서귀포시	-11.1097
▁발전기금	-11.11
시무	-11.1101
▁재학생	-11.1102
▁연구개발	-11.1102
저축	-11.1103
신상품	-11.1105
▁와이파이	-11.1105
관심	-11.1105
코리아세일페스타	-11.1106
佛	-11.1106
▁메모리	-11.1107
ICBM	-11.1107
협박	-11.1107
▁전부	-11.1108
총력	-11.1108
신세계	-11.1108
▁유권자	-11.1108
▁여순사건	-11.1113
▁구청장	-11.1113
▁장면	-11.1116
▁폭풍	-11.1116
▁방시혁	-11.1117
▁국내서	-11.1117
▁구해	-11.1117
▁다할	-11.1118
▁문구	-11.1118
▁아산	-11.1118
▁배정	-11.1119
▁일감	-11.1119
▁스마트팜	-11.1121
▁사과하라	-11.1122
▁관세청	-11.1125
▁실무	-11.1128
▁진보	-11.1132
보건	-11.1135
▁차장	-11.1135
진로	-11.1136
하는데	-11.1136
▁위대	-11.1138
할인	-11.114
임기	-11.1143
▁전태일	-11.1145
▁돕기	-11.115
해라	-11.1151
▁자치구	-11.1157
연대	-11.1159
지사	-11.1161
▁알리	-11.1162
▁뚜렷	-11.1163
▁중국산	-11.1164
▁공매	-11.1167
▁예외	-11.117
▁정관계	-11.1172
▁매도에	-11.1172
▁백색입자	-11.1176
▁불법집회	-11.1176
▁與野	-11.1182
▁대립	-11.1184
▁a	-11.1187
▁심장	-11.1188
팩	-11.1189
▁물가	-11.1189
▁지지자	-11.119
▁충당금	-11.1193
▁상의	-11.1201
▁공주시	-11.1203
배당	-11.1204
▁위험한	-11.1206
황보	-11.1215
규정	-11.1225
▁이천	-11.1226
▁24%	-11.1226
▁철강	-11.1233
▁단행	-11.1234
▁이유로	-11.1235
▁전자담배	-11.1235
▁손배소	-11.1236
▁수출허가	-11.1236
펭수	-11.1236
▁보령시	-11.1239
▁터뜨	-11.124
▁흔적	-11.1242
▁순간	-11.1242
▁사드기지	-11.1244
▁노동신문	-11.1244
▁김정숙	-11.1244
▁없는데	-11.1244
▁이철우	-11.1244
▁정무수석	-11.1246
▁특별한	-11.1246
▁자동	-11.1246
▁믿어	-11.1246
홈	-11.1247
▁진혜원	-11.1248
▁팔고	-11.1249
▁요양병원서	-11.125
▁사라진다	-11.1251
▁증진	-11.1251
▁소외계층	-11.1252
▁금융지주	-11.1253
▁가평군	-11.1253
▁불완전판매	-11.1256
▁조절	-11.1257
▁가계	-11.1258
반성	-11.1258
▁황사	-11.1258
청약	-11.1259
▁역풍	-11.1261
▁박주민	-11.1263
▁당첨	-11.1264
생애최초	-11.1265
▁UNIST	-11.1266
▁미스터리	-11.1266
▁닷새째	-11.1267
▁보세요	-11.1267
▁가면	-11.1269
DSR	-11.1269
출산	-11.1269
짝퉁	-11.1269
촉각	-11.127
▁귀가	-11.1271
이주열	-11.1271
무혐의	-11.1272
디지털교도소	-11.1272
▁황교안	-11.1275
▁주고	-11.1275
▁증가율	-11.1276
▁허브	-11.1276
▁대여	-11.1279
▁올림픽	-11.128
▁삼성생명	-11.1282
▁수치	-11.1282
(1	-11.1283
▁보유세	-11.1286
작년보다	-11.1286
▁삼성전기	-11.1288
미래차	-11.1293
▁사면	-11.1295
▁상권	-11.1295
▁가고	-11.13
▁귀성	-11.1301
’···	-11.1301
▁카카오게임즈	-11.1306
공수처장	-11.131
일정	-11.1311
...22	-11.1315
동의	-11.1316
▁사망률	-11.1318
▁한인	-11.1319
▁유니콘	-11.1329
▁콜센터	-11.133
▁주세요	-11.1332
안전한	-11.1336
▁신사업	-11.1339
▁청소	-11.1342
▁은행장	-11.1344
▁가진	-11.1344
▁놀	-11.1349
▁언급한	-11.1351
입원	-11.1359
▁뒤집기	-11.136
▁국감장에	-11.1362
보며	-11.1363
▁호날두	-11.1364
▁쓰	-11.1375
협약	-11.1376
아카데미	-11.1378
▁전형	-11.1381
현지	-11.1388
인지	-11.1388
▁악몽	-11.1393
▁군부대서	-11.1396
▁팝니다	-11.1397
▁타깃	-11.1397
▁현판식	-11.1398
▁바꿔야	-11.1398
▁수출상담회	-11.1399
▁재배	-11.1399
▁0.2%	-11.1403
▁필기시험	-11.1404
▁수습	-11.1404
▁할까	-11.1404
▁LF	-11.1404
▁축구	-11.1404
▁학살	-11.1405
▁챔피언십	-11.1406
▁특별점검	-11.1407
▁112	-11.1408
▁하회	-11.1408
▁우선협상대상자	-11.1408
▁보고회	-11.1411
▁조정안	-11.1411
휴가	-11.1413
▁서울시의원	-11.1413
충격	-11.1414
헌재	-11.1416
▁시장에	-11.1417
▁홍보관	-11.1417
23	-11.1417
▁말레이시아	-11.1418
최	-11.142
▁중국에	-11.142
▁로스쿨	-11.142
▁김병기	-11.1421
수색	-11.1421
▁선착순	-11.1422
▁낙동강	-11.1424
▁KAI	-11.1426
▁소비자물가	-11.1426
▁신기록	-11.1426
▁정용진	-11.1427
▁대우조선	-11.1429
▁세계식량계획	-11.1429
▁취지	-11.1431
홀딩스	-11.1431
▁보행자	-11.1431
▁주지사	-11.1432
▁재판에	-11.1432
▁참고인	-11.1434
이명박	-11.1437
죽음	-11.1437
인천공항	-11.1437
전혀	-11.1437
WHO	-11.1437
▁수송	-11.1438
▁‘10	-11.1439
▁BBQ	-11.1439
▁고삐	-11.1439
▁기지	-11.1441
▁입시	-11.1442
▁품질비용	-11.1444
▁안동시	-11.1445
▁시계	-11.1446
▁영동	-11.1447
중심	-11.1448
▁석	-11.1449
▁장기화에	-11.145
▁농지	-11.145
지난	-11.145
▁광산구	-11.1454
교육부	-11.1457
▁숨통	-11.1461
▁광주전남	-11.1462
▁귀	-11.1464
▁수입차	-11.1467
▁처음으로	-11.1468
▁언제까지	-11.147
힐	-11.1474
▁위크	-11.1474
▁무선	-11.1475
▁속으로	-11.1476
▁숨겨	-11.1483
▁UAE	-11.1484
▁나주	-11.1485
해외주식	-11.1487
▁스티브	-11.149
▁찬	-11.1491
이근	-11.1493
72	-11.1495
▁대통령과	-11.1497
수요	-11.1507
▁협의회	-11.1511
▁예금	-11.1511
부산서	-11.1515
▁전세버스	-11.1522
▁교실	-11.1522
▁와중에	-11.1531
▁우려도	-11.1532
▁45%	-11.1533
▁유학생	-11.1534
벤츠	-11.1535
▁기금	-11.1536
경남도	-11.1536
?”...	-11.1541
▁영천	-11.1545
놓고	-11.1546
▁남발	-11.1548
▁특례	-11.1548
▁모델로	-11.1549
▁용기	-11.1551
▁영창	-11.1552
▁자산관리	-11.1553
르	-11.1554
▁역량강화	-11.1558
시부터	-11.1558
노마스크	-11.1561
▁산업혁명	-11.1563
▁떴다	-11.1563
▁않도록	-11.1563
용담댐	-11.1563
▁아시나요	-11.1563
▁덮쳐	-11.1563
▁열렸다	-11.1563
▁쏟아진다	-11.1563
▁박형준	-11.1564
자들	-11.1565
▁수사에	-11.1566
▁엄수	-11.1566
▁악영향	-11.1566
수단	-11.1566
사업단	-11.1568
▁할인행사	-11.1569
▁농기계	-11.157
▁고립	-11.157
▁산청군	-11.1571
▁풀린	-11.1572
▁신호탄	-11.1573
50	-11.1573
▁도중	-11.1573
▁경찰의	-11.1573
프란	-11.1577
▁중고거래	-11.1577
▁합천군	-11.1578
▁마스터플러스병원	-11.1578
라던	-11.1578
▁전락	-11.1579
장치	-11.158
심각	-11.1582
▁렉스턴	-11.1583
▁보선	-11.1584
▁한기호	-11.1585
▁체코	-11.1585
▁산부인과	-11.1586
▁방역물품	-11.1586
▁혈세	-11.1587
▁김기현	-11.1588
한방	-11.1588
▁공백	-11.1589
▁형량	-11.159
▁추가확진	-11.1591
▁경보	-11.1591
처	-11.1591
▁게시	-11.1594
▁중동	-11.1596
▁크리스마스	-11.1596
▁드려요	-11.1596
▁확률	-11.1598
▁고구마	-11.1598
월에	-11.1598
조차	-11.16
▁김포시	-11.16
▁발견된	-11.1601
대면	-11.1602
▁교량	-11.1602
뉴시스	-11.1603
나훈아	-11.1604
롭게	-11.1604
비정규직	-11.1604
▁취하	-11.1604
나홀로	-11.1606
필수노동자	-11.1606
▁텔레그램	-11.1606
진짜	-11.1607
전통시장	-11.1607
▁EV	-11.1607
문정인	-11.1609
▁비결은	-11.161
▁경기지역	-11.161
▁비유	-11.1611
▁가정폭력	-11.1615
▁국정원	-11.1616
▁손해	-11.1618
▁지위	-11.1618
▁베	-11.1618
▁덴마크	-11.162
▁간편식	-11.1626
▁1.2	-11.1628
▁지금은	-11.1629
▁그랜드	-11.1631
▁공부	-11.1632
교실	-11.1639
▁1200	-11.1639
초등	-11.1645
▁타다	-11.1654
▁코호트	-11.1654
전체	-11.1654
▁장소	-11.1664
절	-11.1665
▁때도	-11.1667
▁봉납	-11.1669
▁성공적	-11.1677
▁중간	-11.1678
▁구상	-11.1679
▁134	-11.1681
▁책임론	-11.1687
청사	-11.1694
▁몰	-11.1698
▁신안	-11.1707
됐	-11.1712
▁형사	-11.1713
▁재활병원서	-11.1717
▁강북구	-11.1719
▁펀딩	-11.1726
▁돌파구	-11.1732
▁발효	-11.1734
▁드러낸	-11.1734
▁축소신고	-11.1734
▁2.1	-11.1735
▁동래구	-11.1735
▁국장급	-11.1736
▁일자리박람회	-11.1737
▁서영교	-11.1738
▁버젓이	-11.1738
▁부근	-11.1739
▁재감염	-11.1739
▁朴	-11.174
▁97%	-11.174
▁경례	-11.174
▁다대포해수욕장	-11.174
▁김제시	-11.174
▁화답	-11.1742
▁포스텍	-11.1742
▁키친	-11.1742
▁벌인	-11.1744
▁흔드	-11.1745
▁삼성엔지니어링	-11.1745
▁게재	-11.1745
▁역행	-11.1746
▁보건복지부	-11.1746
▁거창군	-11.1746
▁미군기지	-11.1747
▁주식시장	-11.1747
▁생리대	-11.1748
▁위기에	-11.1749
▁스캔들	-11.1751
▁부영	-11.1751
해양	-11.1752
▁식중독	-11.1753
무슨	-11.1753
▁핵심기술	-11.1754
▁투자금	-11.1754
▁허인	-11.1755
▁엄격	-11.1755
▁WSJ	-11.1755
충돌	-11.1757
▁하나카드	-11.1757
▁음료	-11.1758
완전	-11.1758
하락	-11.1758
▁사내	-11.1758
▁시의원	-11.1759
▁지하	-11.1759
일가족	-11.176
▁갔다	-11.176
계좌	-11.176
▁헌법소원	-11.1762
▁한가위	-11.1762
땅	-11.1762
▁반값	-11.1764
▁금정구	-11.1764
의견	-11.1764
▁싹쓸이	-11.1765
▁복무	-11.1766
▁검문	-11.1766
전년동기	-11.1767
▁소방청	-11.1768
비판	-11.1772
인프라	-11.1773
▁연구비	-11.1773
공유	-11.1775
▁소설	-11.1775
이슬람	-11.1777
프리랜서	-11.1777
▁해외직구	-11.1777
스스로	-11.1779
獨	-11.1779
과천	-11.1779
과징금	-11.1779
▁파워	-11.178
여전히	-11.178
해리스	-11.178
▁지리산	-11.1783
위기가구	-11.1783
한강	-11.1785
▁QR	-11.1785
▁두달	-11.1786
작업	-11.1789
▁공공시설	-11.179
▁빈집	-11.179
▁생태	-11.1791
▁과잉	-11.1792
동향	-11.1794
▁[30	-11.1798
분양가	-11.1801
▁봐	-11.1802
▁초래	-11.1805
대박	-11.1806
현안	-11.1811
▁US	-11.1811
울산시	-11.1811
▁공조	-11.1812
▁있어야	-11.1813
▁목포시	-11.1814
정선	-11.182
권력	-11.1823
선수	-11.1824
26	-11.1827
▁남부지검	-11.1827
▁평생	-11.1832
▁편의	-11.1835
기획	-11.1836
▁집무실	-11.1836
▁형성	-11.1839
▁것이	-11.1841
대기	-11.1842
▁로봇이	-11.1845
학부모	-11.1861
▁해지	-11.1866
▁최적	-11.1873
도록	-11.1874
▁불리	-11.1874
▁행복한	-11.1875
▁퇴사	-11.1877
▁대통령상	-11.1879
따라	-11.1882
▁사상구	-11.1882
▁수면	-11.1884
▁실증	-11.1888
▁부친	-11.1892
▁깊은	-11.1893
▁달서구	-11.1896
▁빼	-11.1897
▁깬	-11.1902
런	-11.1902
▁재조명	-11.1903
▁거쳐	-11.1904
알립니다	-11.1905
▁벽화	-11.1905
▁커졌다	-11.1905
▁동국제강	-11.1906
▁긴급사용	-11.1906
▁농협중앙회장	-11.1906
▁줄이고	-11.1906
▁새단장	-11.1906
▁손보협회장	-11.1906
▁찾아온	-11.1906
▁나라냐	-11.1908
▁쉐보레	-11.191
▁커진다	-11.191
▁사찰	-11.191
▁탈환	-11.1911
▁주상복합아파트	-11.1911
▁법원에	-11.1911
▁부사장	-11.1911
바이러스	-11.1911
▁직설	-11.1913
▁국민의례	-11.1913
▁일자리대상	-11.1915
···‘	-11.1915
▁증평군	-11.1915
▁보성군	-11.1916
필요	-11.1916
▁주식회사	-11.1916
▁지킨다	-11.1917
▁당정청	-11.1918
▁직무	-11.1918
▁에어서울	-11.1918
업소	-11.1918
▁했지만	-11.1918
▁인천공항공사	-11.1918
▁무주군	-11.1921
▁천연	-11.1921
국민의	-11.1921
▁안마의자	-11.1921
▁한화생명	-11.1922
▁봉쇄령	-11.1922
▁쉽지	-11.1922
▁서울시의회	-11.1922
중부	-11.1923
▁항공권	-11.1925
▁휴젤	-11.1926
▁김현수	-11.1926
▁김종민	-11.1928
▁Korean	-11.193
▁찬반	-11.193
▁파산	-11.193
▁장관상	-11.193
▁에티오피아	-11.193
▁그리고	-11.193
▁연예인	-11.1933
▁이수진	-11.1934
▁조속히	-11.1934
▁표기	-11.1934
▁무게	-11.1936
사이	-11.1937
명품	-11.1938
우린	-11.1939
▁수당	-11.1941
▁않는다	-11.1941
▁꿈꾸는	-11.1942
간호사	-11.1943
만달러	-11.1943
▁신규환자	-11.1948
마누라	-11.1948
▁매출액	-11.1948
싱가포르	-11.1948
글쎄	-11.1949
▁아침기온	-11.1949
최강	-11.1949
▁결합	-11.195
▁행정소송	-11.1952
휴대폰	-11.1952
▁애	-11.1952
상하이	-11.1953
플라스틱	-11.1953
옛	-11.1953
사무총장	-11.1955
환영	-11.1955
법사위	-11.1956
▁우편투표	-11.1957
아미	-11.196
▁낼	-11.1962
▁연휴에	-11.1964
▁이일병	-11.1964
외인	-11.1965
헬스케어	-11.1965
▁매달	-11.1966
▁합격자	-11.1966
▁순매수	-11.1968
협	-11.197
▁쉬운	-11.197
▁미상	-11.1973
▁입원환자	-11.1974
▁리츠	-11.1975
▁기아	-11.1977
▁보면	-11.1978
▁인니	-11.1982
▁국립공원	-11.1984
▁청정	-11.199
▁‘5	-11.199
상주	-11.1991
..."1	-11.1995
▁조합	-11.1995
▁우주	-11.1998
▁강릉시	-11.1999
24,	-11.1999
링	-11.2
▁89	-11.2001
▁겨울철	-11.2002
▁건너	-11.2005
감시	-11.2006
리는	-11.2006
허	-11.2007
▁상장사	-11.2008
▁베이징	-11.2008
우리는	-11.2016
▁엔진	-11.2018
▁덕분	-11.2019
▁고령	-11.202
▁장성	-11.2023
▁칼럼	-11.2024
▁과제는	-11.2024
▁사기꾼	-11.2025
정의	-11.203
설명회	-11.204
선물	-11.2044
▁되지	-11.2045
사항	-11.2045
x	-11.2046
▁환호	-11.2049
사기꾼	-11.206
철도	-11.206
못	-11.2061
▁교육청	-11.2064
논의	-11.2067
▁알바	-11.207
음식	-11.2078
▁마쳐	-11.2079
▁한번에	-11.2079
弗	-11.208
▁완전정복	-11.208
▁극대화	-11.208
▁팔렸다	-11.208
▁뽑는다	-11.2081
▁데뷔	-11.2081
제일은행	-11.2082
▁성균관대	-11.2084
▁허성	-11.2086
▁저하	-11.2087
▁맞았다	-11.2088
▁간소화	-11.2088
출시	-11.2089
캠퍼스	-11.2089
주사	-11.209
▁죽인	-11.2091
▁퇴진	-11.2091
▁99%	-11.2092
▁문제없다	-11.2092
▁당사	-11.2093
▁머스크	-11.2095
▁가이드라인	-11.2095
▁나오는	-11.2098
▁위약금	-11.2099
▁놀이터	-11.2099
▁CDC	-11.21
▁내로남불	-11.21
▁유네스코	-11.2101
▁꾸준	-11.2103
▁쌍둥이	-11.2104
▁세번째	-11.2104
▁대출금리	-11.2105
▁우위	-11.2105
▁트레일러	-11.2106
생생	-11.2106
너	-11.2107
▁야생	-11.2108
▁나서나	-11.2108
▁직위해제	-11.2111
▁가스공사	-11.2111
▁셋	-11.2113
▁결정에	-11.2114
▁당헌	-11.2115
▁심포지엄	-11.2115
요청	-11.2115
▁대책은	-11.2118
완	-11.2118
▁aT	-11.2118
▁방지법	-11.2119
수첩	-11.212
▁입주민	-11.2121
▁낳	-11.2124
▁상한가	-11.2125
오쇼핑	-11.2128
핫	-11.2128
▁나발니	-11.2129
▁합리적	-11.2129
▁수리	-11.213
임상	-11.213
▁집단감염에	-11.2131
코세페	-11.2131
김종철	-11.2131
뷔페	-11.2132
영업이익	-11.2133
해수부	-11.2133
▁맑은	-11.2133
독점	-11.2133
커지는	-11.2133
계속	-11.2134
할듯	-11.2135
▁평창올림픽	-11.2136
▁단위	-11.2138
지역감염	-11.2139
재난	-11.2142
▁말씀	-11.2142
▁수교	-11.2143
▁약물	-11.2147
수준	-11.2147
영업	-11.2148
인근	-11.2148
기부	-11.2148
▁군인	-11.2149
대권	-11.2152
연기	-11.2155
▁낮춰	-11.2155
간담회	-11.2158
▁기후변화	-11.2164
▁한류	-11.2166
▁의료계	-11.2167
킨	-11.2168
▁나가	-11.2169
▁국내발생	-11.2177
▁되고	-11.2184
▁작심발언	-11.2187
▁교육생	-11.2188
▁바라	-11.2189
▁힘들어	-11.219
조기	-11.2193
꽃	-11.2195
▁방문객	-11.22
숨	-11.2201
▁한밤중	-11.2203
▁탈	-11.2206
제주도	-11.2207
▁강국	-11.2207
사례	-11.221
▁김동	-11.2217
정부는	-11.2217
▁나노	-11.2221
행복	-11.2227
▁사유	-11.2231
개미	-11.2233
ha	-11.2233
▁훔쳐	-11.2235
▁살아	-11.224
▁열쇠	-11.2241
▁표정	-11.2243
▁민생	-11.2244
원회	-11.2246
취약계층	-11.2247
▁맞서	-11.2252
▁재취업	-11.2253
년여	-11.2255
▁빚투	-11.2256
치는	-11.2258
Mint	-11.2259
굿모닝월드	-11.2259
노태우	-11.2259
▁회원국	-11.2259
머그	-11.226
▁수시모집	-11.226
▁집중단속	-11.2261
▁프로	-11.2262
▁동서식품	-11.2262
▁유찰	-11.2262
▁국가고시	-11.2263
▁추첨	-11.2263
김포	-11.2264
핵심	-11.2264
▁구윤철	-11.2264
▁4.5	-11.2265
▁영광군	-11.2266
▁겨우	-11.2267
학습	-11.2267
▁대구예수중심교회	-11.2267
▁풀린다	-11.2267
▁투자협약	-11.2268
▁대중화	-11.2268
▁졸업생	-11.2268
▁동력	-11.2269
▁윤희숙	-11.2269
▁김기춘	-11.2269
▁소요	-11.227
중고차	-11.227
▁입사	-11.227
▁살피	-11.2271
▁신소재	-11.2271
▁국제포럼	-11.2271
▁가림막	-11.2271
▁7%	-11.2271
▁무색	-11.2274
▁부양	-11.2274
유세	-11.2274
▁53%	-11.2276
▁전략회의	-11.2276
라운지	-11.2277
▁개소식	-11.2277
▁보이콧	-11.2278
▁거래액	-11.2279
▁101	-11.2282
▁번진	-11.2283
▁보험사기	-11.2283
▁골목길	-11.2284
▁직고용	-11.2285
▁이동제한	-11.2286
천만명	-11.2287
▁비자발급	-11.2287
▁투병	-11.2288
▁중랑구	-11.2288
▁괴산군	-11.2289
▁스토어	-11.229
▁교육과정	-11.2291
▁영혼	-11.2292
수익	-11.2292
▁식약처장	-11.2293
▁수질	-11.2294
클라우드	-11.2295
변	-11.2296
▁산모	-11.2297
▁소프트웨어	-11.2299
키움	-11.2301
▁GTX	-11.2301
▁공개하라	-11.2303
▁성착취물	-11.2303
▁NK	-11.2303
폐업	-11.2304
▁김선동	-11.2305
▁회장에	-11.2306
어닝	-11.2306
▁해외입국	-11.2307
▁속여	-11.2307
굿모닝	-11.2308
▁화폐	-11.2308
▁주중	-11.231
웨이	-11.2311
핀테크	-11.2313
▁수출입	-11.2313
경찰청	-11.2314
스타필드	-11.2314
이수혁	-11.2315
소비쿠폰	-11.2315
BMW	-11.2315
삼성물산	-11.2315
평택	-11.232
건수	-11.232
아무	-11.2322
하우스	-11.2323
▁오르는	-11.2325
▁직면	-11.2325
남성	-11.2326
▁열세	-11.2327
▁병	-11.233
▁자금조달계획서	-11.233
▁봉사단	-11.2331
▁초교	-11.2333
▁사장단	-11.2335
서초	-11.2335
▁날아	-11.2337
만명대	-11.2337
▁수영장	-11.234
▁이성윤	-11.2341
▁그리스	-11.2344
▁버섯	-11.2346
▁키르기스스탄	-11.235
▁군사	-11.2351
예금	-11.2352
▁'7	-11.2358
주차	-11.2361
▁보건당국	-11.2364
▁무릎	-11.2365
사업장	-11.2366
▁사실무근	-11.2368
▁공개에	-11.2371
UN	-11.2375
▁페북	-11.2377
▁환절기	-11.2387
▁추궁	-11.2388
▁뻔	-11.2388
▁홍천서	-11.239
보단	-11.2392
전면	-11.2395
...26	-11.2395
등록	-11.2399
제재	-11.24
▁삶의	-11.2401
서훈	-11.2401
다운	-11.2402
▁3.4	-11.2403
▁이어질	-11.2404
▁품귀	-11.2407
▁기대에	-11.2411
▁의사국시	-11.2411
▁설정	-11.2412
▁신경	-11.2416
▁장치	-11.2416
사태	-11.2417
승인	-11.2426
▁당연	-11.2429
곽상도	-11.2429
스쿨	-11.2432
대국민	-11.2432
」	-11.2435
▁군민	-11.2436
▁의왕시	-11.2438
社	-11.244
▁언제쯤	-11.2442
▁가시화	-11.2444
신탁	-11.2445
▁제치고	-11.2445
▁지방공무원	-11.2446
▁안태근	-11.2446
▁나란히	-11.2446
▁확인하세요	-11.2447
▁체납액	-11.2448
▁전년비	-11.2449
▁태안	-11.2449
▁영주	-11.2449
▁찾아야	-11.245
▁화순군	-11.2454
▁선점	-11.2454
▁벨라루스	-11.2456
▁탐방	-11.246
▁수출액	-11.2462
▁탐지	-11.2462
800	-11.2462
했더니	-11.2463
▁롯데리아	-11.2463
▁커뮤니티	-11.2463
▁포스코에너지	-11.2464
브라질	-11.2464
▁한미약품	-11.2465
▁상공	-11.2465
▁건재	-11.2466
조원에	-11.2468
▁건축물	-11.2468
▁수출길	-11.2469
▁김형	-11.2469
▁UCC	-11.247
▁곳곳에	-11.2471
▁드라이브스루	-11.2474
▁클래식	-11.2474
▁생방송	-11.2476
업종	-11.2476
▁정전	-11.2478
▁잠시	-11.2478
▁선제	-11.2478
▁조회	-11.2479
기로	-11.2479
▁장성군	-11.2479
▁누명	-11.2483
▁우울증	-11.2484
한일	-11.2484
▁수감	-11.2487
세운	-11.2487
리얼미터	-11.2488
▁예의주시	-11.2491
경남은행	-11.2492
이사	-11.2492
▁가게	-11.2493
완화	-11.2493
▁지역인재	-11.2493
안정	-11.2493
▁경남도의회	-11.2493
사단	-11.2495
동에	-11.2495
▁지도자	-11.2495
▁유흥업소	-11.2496
이것	-11.2496
▁‘0	-11.2497
金	-11.2497
▁연중	-11.2497
독재	-11.2498
▁사회적기업	-11.2499
칼럼	-11.2499
공화당	-11.2499
▁오해	-11.2499
▁공고	-11.25
빨리	-11.25
▁부마민주항쟁	-11.25
▁유흥주점	-11.25
불가피	-11.25
▁포	-11.2501
84	-11.2501
경영권	-11.2502
걸	-11.2504
긴급	-11.2504
▁통계청	-11.2505
▁설	-11.2506
▁2016	-11.2508
SKT	-11.2508
술집	-11.2509
▁다행	-11.2511
▁이재	-11.2513
갑	-11.2515
▁상무	-11.2519
▁강원대	-11.2526
▁댐	-11.2527
▁걸어	-11.2532
월드	-11.2538
▁오보	-11.2539
▁2500	-11.254
김용진	-11.2543
▁바이	-11.2545
▁동남권	-11.2549
▁113	-11.2558
미디어	-11.2559
▁지지부진	-11.2563
▁뷔페	-11.2566
보상	-11.2566
▁절도	-11.2567
▁꼴	-11.2567
▁이천시	-11.2575
▁당대표	-11.2575
대학생	-11.2577
▁복당	-11.2579
,‘	-11.2581
▁소부장	-11.2584
▁풀어	-11.2584
쳐	-11.2591
▁옵티머스에	-11.2591
▁폭로에	-11.2593
▁임산부	-11.2596
초반	-11.2601
배송	-11.2601
]2020	-11.2608
▁명소	-11.2609
포장	-11.2611
▁가담	-11.2618
▁수천만원	-11.2621
끼리	-11.2621
▁기재	-11.2623
▁출항	-11.2623
미중	-11.2626
▁손병두	-11.2626
하이킥	-11.2626
▁없도록	-11.2626
▁물든	-11.2626
▁앞세워	-11.2626
▁좌초	-11.2626
취재후	-11.2626
▁장녀	-11.2627
▁팔았다	-11.2627
▁당론	-11.2628
▁현대홈쇼핑	-11.2628
▁게시글	-11.263
▁띄워	-11.263
▁깨고	-11.2631
지표	-11.2631
▁단독주택	-11.2633
▁덮어	-11.2633
▁황희	-11.2633
▁진전	-11.2634
▁없던	-11.2634
▁거대	-11.2634
▁종식	-11.2635
▁대권주자	-11.2636
열차	-11.2636
▁질병관리청장	-11.2636
▁불황	-11.2636
들인	-11.2637
▁선두	-11.2637
▁상표	-11.2637
▁영예	-11.2637
▁쏠림	-11.2639
▁대대적	-11.264
▁울산시교육청	-11.264
▁단백질	-11.2641
▁의사봉	-11.2641
자랑스러	-11.2641
▁모금	-11.2642
▁건물서	-11.2643
▁생	-11.2643
▁윤준병	-11.2643
▁실업수당	-11.2644
위한	-11.2645
▁오를	-11.2645
▁적립	-11.2645
▁윤관석	-11.2646
▁한달만에	-11.2647
케이	-11.2647
빵	-11.2649
▁거인	-11.265
▁한국거래소	-11.265
▁생계	-11.265
▁누나	-11.265
▁광역	-11.2651
▁세액공제	-11.2651
▁수자원공사	-11.2651
▁국가대표	-11.2651
▁신속진단키트	-11.2651
▁배달의민족	-11.2653
▁김경협	-11.2653
▁비방	-11.2654
▁화려	-11.2655
▁충족	-11.2655
▁외벽	-11.2656
▁잡	-11.2656
▁냄새	-11.2661
▁이어진	-11.2663
▁이길	-11.2664
▁이성	-11.2664
국비	-11.2664
▁골드만삭스	-11.2665
▁정비사업	-11.2667
▁믿을	-11.2668
▁괴물	-11.2669
▁검토해야	-11.2669
▁시중은행	-11.267
▁재범	-11.267
유감	-11.2672
▁전남서	-11.2672
▁없어요	-11.2673
▁영역	-11.2674
▁스페셜	-11.2674
▁김원	-11.2675
▁내놓	-11.2675
농산물	-11.2676
大	-11.2676
▁차에	-11.2676
▁산자위	-11.2677
▁디즈니	-11.2679
손석희	-11.268
셀	-11.268
솔루션	-11.2681
▁밀려	-11.2682
▁사우디	-11.2682
굴	-11.2683
과잉	-11.2684
▁펠로시	-11.2684
▁정세	-11.2685
아이콘	-11.2685
인터넷	-11.2686
▁나설	-11.2686
최신원	-11.2688
김무성	-11.2688
▁왕이	-11.2688
미사일	-11.2689
이렇게	-11.269
▁사명	-11.2692
가해자	-11.2692
은성수	-11.2693
강남구	-11.2694
유전자	-11.2698
▁경기부양	-11.2699
판결	-11.2701
▁웹툰	-11.2702
▁밀집	-11.2705
인물	-11.2706
다음달	-11.2706
▁등재	-11.271
▁어린이집서	-11.271
하길	-11.2713
▁유통업계	-11.2715
나선	-11.2715
기회	-11.2716
통일	-11.2719
▁총리에	-11.272
카드뉴스	-11.2723
▁롯데온	-11.2723
FC	-11.273
▁범죄자	-11.2734
진실	-11.2735
▁돌려	-11.2736
▁원해	-11.274
▁화상으로	-11.2742
▁올인	-11.2749
▁267	-11.2751
▁경기남부	-11.2751
공동	-11.2755
▁대통령이	-11.2759
▁중고	-11.2761
▁우울	-11.2765
▁얼마	-11.2765
▁39%	-11.2766
▁나홀로	-11.2767
▁37%	-11.2768
▁한중	-11.2769
나우	-11.2769
▁'9	-11.2774
▁확신	-11.2775
탈	-11.2776
남은	-11.2776
설비	-11.2782
▁누리	-11.2786
▁미래에셋	-11.2791
▁출자	-11.2796
▁배부	-11.28
▁240	-11.2801
▁직	-11.2801
▁진상	-11.2801
방향	-11.2803
▁증액	-11.2805
▁분쟁조정	-11.2808
▁구하기	-11.2811
▁진안군	-11.2811
▁같아	-11.2812
▁성토	-11.2814
▁재점화	-11.2815
▁즐긴다	-11.2815
▁명예회장	-11.2815
▁번져	-11.2815
▁41%	-11.2816
▁생겼다	-11.2816
▁팔아요	-11.2816
▁달래기	-11.2817
▁서포터즈	-11.2817
▁던져	-11.2817
▁역설	-11.2818
▁패션쇼	-11.2819
▁지킨	-11.282
▁타전	-11.282
▁돌린	-11.2821
▁복수의결권	-11.2823
▁호반건설	-11.2824
▁전동	-11.2825
화성	-11.2826
▁철새	-11.2827
▁국립대	-11.2828
▁제주지사	-11.2828
택시	-11.2828
측근	-11.2829
▁현장점검	-11.2832
▁배현진	-11.2832
▁대검찰청	-11.2833
▁모종	-11.2835
▁동대문구	-11.2835
▁유튜브로	-11.2836
▁국왕	-11.2836
급증	-11.2836
▁손가락	-11.2837
▁진성준	-11.284
▁학자금	-11.284
▁두번	-11.2841
▁가정용	-11.2841
▁상관	-11.2842
▁바뀐	-11.2845
▁로비스트	-11.2845
▁여친	-11.2847
▁로컬푸드	-11.2847
▁주택연금	-11.2847
제자	-11.2847
▁화해	-11.2847
▁결함	-11.2848
▁급증에	-11.2848
▁좌석	-11.2848
▁뭇매	-11.2848
▁1,000	-11.2849
▁여가부	-11.2851
용지	-11.2853
민주주의	-11.2854
▁도입해야	-11.2855
▁SCM	-11.2856
▁초읽기	-11.2857
▁기상청	-11.2858
▁스튜디오	-11.286
▁올해만	-11.2861
▁집중호우	-11.2861
띠	-11.2863
개최	-11.2866
▁뉴딜사업	-11.2866
▁대마초	-11.2867
진영	-11.2868
▁공직자	-11.2868
▁농성	-11.2868
주유소	-11.2869
▁기술력	-11.2869
피플	-11.2869
갓갓	-11.287
빨간약	-11.287
▁건보	-11.287
ddi	-11.287
▁레이스	-11.2873
▁김종	-11.2874
시즌	-11.2875
광복절	-11.2875
님	-11.2875
▁벌이	-11.2876
▁포장	-11.2876
▁마스터	-11.2877
▁팀장	-11.2877
▁생후	-11.2877
-4	-11.2878
▁엿새	-11.2878
바른	-11.2879
원격수업	-11.2881
침묵	-11.2881
나누는	-11.2881
환경부	-11.2882
소규모	-11.2882
해임	-11.2883
머리	-11.2883
불공정	-11.2883
▁만들어야	-11.2884
약속	-11.2886
▁나눠	-11.2888
▁향기	-11.2889
▁극단	-11.2889
드림	-11.2893
상속	-11.2898
소리	-11.2899
남부	-11.2899
정당한	-11.29
▁키	-11.2904
▁알고도	-11.2905
조례	-11.2909
▁라임펀드	-11.291
▁세포	-11.2915
최종	-11.2915
▁센트럴	-11.2918
한국이	-11.292
▁사상최대	-11.292
▁후배	-11.2922
태백	-11.2923
▁민주화운동	-11.2923
전력	-11.2927
숙	-11.2934
인간	-11.2936
▁탑	-11.2936
산재보험	-11.2938
▁한양	-11.2939
▁체류	-11.2941
▁공동대응	-11.2941
▁자주	-11.2943
▁스	-11.2944
세기	-11.2949
분간	-11.2953
▁숨	-11.2953
▁유엔에	-11.2956
▁부산시의회	-11.2958
▁장마	-11.2961
▁양양	-11.2966
▁폴	-11.2971
▁for	-11.2971
▁진입로	-11.2972
▁집단면역	-11.2974
쯤	-11.2974
▁성적표	-11.2976
장의	-11.2977
▁송금	-11.2979
▁가서	-11.2982
매수	-11.299
▁기기	-11.2992
▁본회의장	-11.2996
대법관	-11.2996
▁석유	-11.2999
▁커플	-11.3002
▁처우	-11.3003
▁자립	-11.3004
▁다툼	-11.3007
프라엘	-11.3007
▁줄었지만	-11.3007
▁정취	-11.3008
▁13%	-11.3008
▁원대	-11.301
▁바꿔라	-11.301
박람회	-11.301
▁되레	-11.301
▁남겨	-11.3011
▁약자	-11.3011
▁울진군	-11.3012
▁차장검사	-11.3012
▁등교인원	-11.3014
▁열매	-11.3014
▁공개채용	-11.3015
▁밀수	-11.3015
▁탄소	-11.3015
매장	-11.3015
▁스티로폼	-11.3015
▁보강	-11.3016
▁공론화	-11.3017
기억	-11.3018
▁수여식	-11.3018
평생	-11.3018
▁응답	-11.3019
▁안전점검	-11.302
▁포르쉐	-11.302
▁허태정	-11.302
▁신중	-11.3021
▁소득기준	-11.3022
▁66%	-11.3022
장진호	-11.3023
▁긴급생계비	-11.3023
▁갈수록	-11.3024
▁공범	-11.3024
▁성착취	-11.3024
▁경기도의회	-11.3025
▁송영길	-11.3025
▁짓는다	-11.3026
▁#	-11.3026
▁팬	-11.3027
▁꽉	-11.3028
▁윤곽	-11.3028
▁리빙	-11.3031
▁매뉴얼	-11.3035
▁권성동	-11.3035
답변	-11.3036
▁외화	-11.3037
▁선생님	-11.3037
▁최창희	-11.304
▁중점	-11.3041
▁음란물	-11.3043
▁의결권	-11.3043
수업	-11.3045
보조금	-11.3045
방지	-11.3045
▁이하로	-11.3049
점포	-11.3049
▁뜬	-11.305
▁석탄발전	-11.3052
38	-11.3054
▁협치	-11.3055
▁도의원	-11.3055
발언	-11.3055
▁매몰	-11.3056
▁농어촌	-11.3056
▁총괄	-11.3058
비디오	-11.3059
▁김택진	-11.306
현금	-11.3061
▁시절	-11.3062
▁전세대란	-11.3063
우수상	-11.3064
▁계약서	-11.3064
▁추억	-11.3066
▁말말말	-11.3067
접수	-11.3069
▁서면	-11.307
연봉	-11.307
후원금	-11.3075
뒷광고	-11.3075
실형	-11.3076
달아	-11.3076
당근마켓	-11.3077
불법촬영	-11.3077
박정희	-11.3077
시그니처	-11.3077
국민이	-11.3079
추적	-11.3081
동승자	-11.3081
끝까지	-11.3083
▁UP	-11.3084
가짜뉴스	-11.3084
▁충전소	-11.3085
▁담배	-11.3087
▁수의계약	-11.3087
▁투자한	-11.3092
▁마이너스	-11.31
▁수백명	-11.3101
친절한	-11.3101
▁1.6	-11.3105
▁원하는	-11.311
법치	-11.3114
▁채동욱	-11.3116
...60	-11.3116
▁자리에	-11.3117
이야	-11.3118
▁증거금	-11.312
▁적절	-11.3122
삼	-11.3124
최저	-11.3125
▁골	-11.3125
대사관	-11.3127
▁징수	-11.3127
억여원	-11.3138
▁강릉서	-11.314
▁전공의	-11.314
▁파키스탄	-11.3142
▁큐브	-11.3143
▁아는	-11.3147
▁품격	-11.3148
병원서	-11.3152
투표	-11.3153
▁며칠	-11.3154
▁청	-11.3154
객	-11.316
▁헌법	-11.3162
▁눈치	-11.3167
사무소	-11.3169
▁진단검사	-11.317
도내	-11.3172
▁폭스바겐	-11.3172
밖	-11.3173
▁코세페	-11.3185
▁사칭	-11.3195
▁자문	-11.3197
▁65%	-11.3198
▁쏠린	-11.3198
▁파도	-11.32
▁고충	-11.32
▁인국공	-11.3202
▁서브봇	-11.3203
▁선구자	-11.3203
▁맡는다	-11.3203
▁어긴	-11.3203
▁등산	-11.3203
▁달렸다	-11.3204
▁놀이	-11.3204
▁느는데	-11.3204
▁153	-11.3205
▁있었나	-11.3205
▁순창군	-11.3205
▁병역거부자	-11.3206
▁덮었다	-11.3206
▁지켜라	-11.3206
태평양	-11.3206
▁육탄전	-11.3207
▁밝혀라	-11.3207
파전	-11.3208
▁줄이기	-11.3208
▁중립	-11.3208
철거	-11.3209
▁관점	-11.3209
▁막았다	-11.321
▁MLB	-11.3212
▁순매도	-11.3212
▁없지만	-11.3213
▁웨비나	-11.3214
최고의	-11.3214
▁복용	-11.3215
▁함양군	-11.3216
▁있지만	-11.3216
보니	-11.3216
▁가보니	-11.3216
▁대선후보	-11.3217
▁한남대	-11.3217
▁졸업	-11.3217
▁감원	-11.3218
▁조직개편	-11.3218
▁환경개선	-11.3219
▁콜롬비아	-11.3219
▁최후통첩	-11.3219
요금	-11.322
▁크기	-11.3221
▁법인택시	-11.3222
▁수사심의위	-11.3222
▁용량	-11.3222
▁제각각	-11.3223
▁펜실베이니아	-11.3223
▁실체	-11.3223
SI	-11.3224
▁활발	-11.3226
▁되다	-11.3226
▁용인시장	-11.3229
▁수십	-11.3229
▁축전	-11.3229
▁쉼터	-11.323
▁리드	-11.3231
▁산업은행	-11.3231
▁영향력	-11.3232
청렴	-11.3232
▁현금화	-11.3233
▁실수	-11.3234
▁코앞	-11.3234
▁강희석	-11.3234
▁과일	-11.3235
▁상생협약	-11.3235
▁혁신제품	-11.3236
▁할인권	-11.3236
▁고위급	-11.3238
▁상표권	-11.3238
▁123	-11.3238
과장	-11.3239
▁신성약품	-11.3239
▁기초	-11.3242
▁NS	-11.3244
▁박형철	-11.3244
▁면허	-11.3245
▁양산시	-11.3248
▁여학생	-11.3248
▁넣	-11.3249
Asia	-11.3249
▁전략은	-11.3252
▁O	-11.3259
▁질병	-11.326
▁필터	-11.3262
가짜사나이	-11.3264
600	-11.3265
팔자	-11.3267
▁아제르바이잔	-11.3267
상가	-11.3267
유안타	-11.3268
▁여름	-11.327
▁세력	-11.3271
나이트	-11.3272
라면형제	-11.3274
▁PB	-11.3274
소방당국	-11.3274
비비고	-11.3274
쓱데이	-11.3275
시리즈	-11.3277
집행유예	-11.3277
체포동의안	-11.3277
산발적	-11.3278
대신증권	-11.3278
▁선제적	-11.3278
극단적	-11.3278
▁쓰러	-11.328
▁과기부	-11.328
고교생	-11.3281
▁영천시	-11.3281
아산	-11.3282
▁여는	-11.3286
▁피해액	-11.3286
▁초점	-11.3288
신용대출	-11.3288
세포	-11.3289
▁창업자	-11.3292
삼성증권	-11.3293
▁방법은	-11.3295
▁큰불	-11.3296
▁사드	-11.3297
테러	-11.3299
폐	-11.33
보좌관	-11.33
졌다	-11.33
▁SW	-11.3302
유가	-11.3303
▁위기의	-11.3304
▁있	-11.3311
▁문의	-11.3311
▁1100	-11.3313
붙은	-11.3316
▁틱톡	-11.3321
▁350	-11.3325
삼득	-11.3328
▁음성군	-11.3329
▁군수	-11.3331
커	-11.3332
▁전문인력	-11.3335
엔진	-11.3341
사립	-11.3344
▁올해도	-11.3345
▁서귀포	-11.3346
투자자	-11.3348
쿵	-11.335
일상	-11.3352
무기	-11.3352
▁초일류	-11.3353
단순	-11.3357
려면	-11.3369
▁강제징용	-11.337
이용	-11.3375
자회사	-11.3378
▁기내	-11.3378
▁J	-11.3379
▁서부	-11.338
▁관련자	-11.3387
▁노모	-11.3392
죄	-11.3393
on	-11.3394
매물	-11.3395
▁거취	-11.3397
▁뛴	-11.3401
▁놓은	-11.3403
▁야스쿠니신사	-11.3403
▁와이즈유	-11.3403
차세대리더	-11.3403
▁기망	-11.3404
▁바꿀	-11.3404
▁휴온스	-11.3404
▁경감	-11.3405
▁광양	-11.3406
▁경기지사	-11.3406
▁상봉	-11.3406
▁「	-11.3406
▁편집숍	-11.3407
▁불구	-11.3407
▁특별단속	-11.3408
▁지명식	-11.3409
▁끝나면	-11.3409
▁정리해고	-11.341
▁국제인증	-11.3412
팬데믹	-11.3413
▁280	-11.3413
▁효자	-11.3413
▁서아프리카	-11.3414
▁시범운영	-11.3415
▁굴	-11.3415
양방향	-11.3416
▁에르도안	-11.3417
▁가닥	-11.3417
▁거목	-11.3417
▁가혹	-11.3418
▁인류	-11.3418
▁어려울	-11.3419
▁이정옥	-11.342
▁근본	-11.342
▁고려대	-11.3421
▁주점	-11.3421
▁살기	-11.3424
▁활용해	-11.3424
▁여주시	-11.3427
▁거래량	-11.3428
▁납부	-11.3428
▁없어야	-11.3428
▁세트	-11.3429
▁거제시	-11.3429
▁모더나	-11.343
▁알리바바	-11.343
▁대망론	-11.343
▁나라는	-11.343
▁요금제	-11.343
▁계열	-11.3432
▁영등포	-11.3433
▁청렴	-11.3434
▁웃는	-11.3435
▁재도전	-11.3435
▁소송전	-11.3436
▁경영평가	-11.3436
▁양돈농가	-11.3437
▁청취	-11.3438
▁정기예금	-11.3438
▁아이템	-11.3438
AR	-11.344
부당	-11.3442
▁전달식	-11.3444
▁총회	-11.3444
▁국면	-11.3444
▁판단은	-11.3444
▁판교	-11.3447
▁혼선	-11.3447
한우	-11.345
있다	-11.3451
검토	-11.3452
성남	-11.3452
처분	-11.3453
!"...	-11.3453
▁입학준비금	-11.3453
▁패싱	-11.3453
경합주	-11.3455
공감	-11.3456
▁곳은	-11.3456
?...'	-11.3458
▁행정통합	-11.3459
출석	-11.3459
▁몸살	-11.3461
▁비난에	-11.3461
▁미소	-11.3461
▁농장	-11.3462
▁중저가	-11.3462
▁로펌	-11.3463
으며	-11.3464
▁수집	-11.3464
▁활기	-11.3466
▁노영민	-11.3466
녀	-11.3467
▁전담팀	-11.3468
▁항공업계	-11.3471
▁전망치	-11.3471
공룡	-11.3473
사퇴	-11.3475
▁정계	-11.3475
톱	-11.3475
세미나	-11.3477
관광객	-11.3477
쏙	-11.3478
▁줬다	-11.3479
목적지	-11.3479
전셋집	-11.348
공공의대	-11.348
전세대란	-11.348
▁대단	-11.348
▁고창서	-11.348
반토막	-11.348
포착	-11.3481
사각지대	-11.3481
9000	-11.3481
되자	-11.3481
할로윈	-11.3481
화장품	-11.3481
불확실성	-11.3481
신제품	-11.3481
대한항공	-11.3482
최재형	-11.3482
교통사고	-11.3483
가을철	-11.3485
▁영끌	-11.3485
문화재	-11.3487
▁윌슨	-11.3487
장기	-11.3488
▁번호	-11.3489
▁55%	-11.349
프로	-11.349
▁포상	-11.3493
▁23%	-11.3494
▁Co	-11.3497
올해만	-11.3498
▁한파	-11.3499
손실	-11.3499
▁삽	-11.3501
수협	-11.3502
▁내전	-11.3503
김해	-11.3503
▁서울역	-11.3505
LA	-11.3505
사드	-11.3507
▁포스트코로나	-11.3509
▁효과적	-11.3509
만명에	-11.3512
기도	-11.3513
공모가	-11.3515
▁카뱅	-11.3521
▁방침에	-11.3521
▁방위비	-11.3522
▁징벌적	-11.3524
▁고양이	-11.3524
▁전셋집	-11.3529
정상	-11.3529
▁안된	-11.3532
▁터	-11.3534
▁한글로	-11.3537
▁산지	-11.3547
고양	-11.3547
▁토종	-11.3548
화제	-11.3548
▁상하이	-11.355
▁공감대	-11.3556
▁벌	-11.3562
▁집권	-11.3562
▁스타일	-11.3564
농	-11.3567
▁싶어	-11.3568
▁하는데	-11.3571
▁2020’	-11.3572
▁사모	-11.3573
▁역	-11.3579
▁연탄	-11.358
▁위안부	-11.3583
올해는	-11.3584
시동	-11.359
외부	-11.3591
▁수백	-11.3593
▁독자	-11.3593
흠	-11.3595
위기의	-11.3596
▁내놔	-11.3605
▁곡성군	-11.3605
▁뛰어든	-11.3605
▁EDGC	-11.3607
▁굉장	-11.3607
▁"5·18	-11.3607
▁돌아왔다	-11.3607
▁JW	-11.3607
▁절규	-11.3607
▁7.0	-11.3608
▁데모데이	-11.3608
이유	-11.3608
▁국경	-11.3608
▁두드리	-11.361
▁빵	-11.361
▁재인산성	-11.3611
▁거기서	-11.3612
▁닫는다	-11.3613
▁32%	-11.3613
자연	-11.3613
▁원산안면대교	-11.3613
▁지켜봐야	-11.3614
SC	-11.3614
▁표적	-11.3617
▁고흥군	-11.3619
▁박근희	-11.3619
▁몸싸움	-11.3619
▁총공세	-11.3619
어요	-11.3619
답	-11.362
▁일침	-11.362
연일	-11.3621
위법	-11.3622
▁로비의혹	-11.3622
▁Y	-11.3624
▁찾아간	-11.3625
▁오름세	-11.3626
▁텃밭	-11.3626
▁한마당	-11.3626
▁이탄희	-11.3626
▁건보공단	-11.3627
▁폰	-11.3628
탐사	-11.3628
▁해병대	-11.3628
▁수협은행장	-11.3628
▁매수에	-11.3628
투기	-11.3629
남매	-11.363
▁르노삼성	-11.363
▁저렴	-11.3631
▁챗봇	-11.3632
▁벨기에	-11.3632
질환	-11.3632
▁상한제	-11.3633
▁저격수	-11.3633
▁영광	-11.3634
안희정	-11.3634
▁시승	-11.3634
▁행안위	-11.3635
▁유흥시설	-11.3637
▁전세시장	-11.364
지방자치단체	-11.3641
▁불투명	-11.3641
상사	-11.3642
▁상수도	-11.3643
▁관내	-11.3644
▁금상	-11.3646
▁사랑제일교회	-11.3648
▁핀	-11.3648
▁수사하라	-11.3649
▁알파	-11.3649
▁불똥	-11.3651
▁필요해	-11.3651
▁대리	-11.3652
특위	-11.3655
주세요	-11.3656
▁넣어	-11.3656
한국의	-11.3659
▁박성	-11.366
▁기능성	-11.3663
▁요양	-11.3663
▁탓에	-11.3664
▁재정비	-11.3665
힘	-11.3666
▁컷	-11.3666
▁안건	-11.3666
픈	-11.3668
▁억지	-11.3668
▁팽팽	-11.3671
▁우뚝	-11.3673
내용	-11.3675
경력	-11.3675
▁극	-11.3677
▁국민들	-11.3682
▁물건	-11.3684
변화	-11.3684
부마항쟁	-11.3685
동네	-11.3685
SAT	-11.3686
민생	-11.3686
힐링	-11.3687
비스포크	-11.3688
사실무근	-11.3688
종부세	-11.3689
혼란	-11.3689
장하성	-11.369
▁1.7	-11.3692
불법집회	-11.3692
▁귀경	-11.3693
▁뒤엔	-11.3693
▁있다고	-11.3698
과도한	-11.3701
여곳	-11.3703
▁정산	-11.3707
▁"30	-11.3712
▁제안에	-11.3714
▁죽은	-11.3714
실제	-11.3715
▁안정성	-11.3715
▁′′	-11.3716
▁테마	-11.3718
▁기피	-11.3718
▁반포	-11.3719
▁장착	-11.3723
▁호조에	-11.3727
당장	-11.373
뇌	-11.3732
농촌	-11.3733
▁단순	-11.3733
▁압박에	-11.3735
루	-11.3738
▁태풍피해	-11.374
체제	-11.3748
억울	-11.3748
▁‘2	-11.3751
강제	-11.3753
▁상륙	-11.3753
자진	-11.3756
▁봄	-11.3756
▁송파	-11.3762
▁전망은	-11.3762
공천	-11.3764
▁치솟는	-11.3764
▁딜	-11.3766
매년	-11.3768
축	-11.3771
▁신뢰도	-11.3773
결혼	-11.3774
이지만	-11.3776
▁면세	-11.3777
미술관	-11.3778
▁뜯어	-11.378
▁아쉬워	-11.3781
▁빌	-11.3782
!’	-11.3784
▁등산객	-11.3785
미친	-11.379
▁남측	-11.379
▁지식재산	-11.3791
명꼴	-11.3794
▁일라이릴리	-11.3795
작전	-11.3795
▁간편	-11.3798
▁패배	-11.3799
투데이	-11.38
▁프레스	-11.3806
작가	-11.381
의경	-11.381
▁갖춰	-11.3812
▁만족	-11.3813
號	-11.3815
정면승부	-11.3815
버트	-11.3815
▁늘리고	-11.3816
▁개봉	-11.3816
행정사무감사	-11.3816
▁충청북도	-11.3817
▁강타	-11.3817
▁괜찮을까	-11.3817
▁띄운다	-11.3818
▁집중점검	-11.3819
▁인연	-11.3819
▁끝났다	-11.3819
▁재추진	-11.3821
▁책임져야	-11.3821
▁급부상	-11.3822
▁부경대	-11.3822
▁3.5	-11.3823
▁번복	-11.3823
▁은닉	-11.3824
▁주역	-11.3824
▁감상	-11.3825
▁되겠다	-11.3825
▁양승	-11.3826
의식	-11.3826
▁실직	-11.3827
▁교촌치킨	-11.3827
▁후보군	-11.3828
▁비상사태	-11.3828
▁도리	-11.3829
▁막겠다	-11.383
▁둘레길	-11.383
▁국립세종수목원	-11.383
와인	-11.383
▁기술이전	-11.3832
▁캐시백	-11.3833
▁딱지	-11.3833
시간째	-11.3834
▁삼성디스플레이	-11.3835
▁해안	-11.3835
▁매진	-11.3835
▁레시피	-11.3835
▁지능형	-11.3836
슈	-11.3836
▁별세에	-11.3837
▁법무부장관	-11.3837
▁신사	-11.3839
▁직원이	-11.3839
투어	-11.384
▁마일리지	-11.3841
▁사망신고	-11.3841
▁방청권	-11.3841
▁철저한	-11.3841
▁안간힘	-11.3841
▁진료비	-11.3842
내륙	-11.3843
▁포트폴리오	-11.3843
▁메신저	-11.3843
▁모르는	-11.3844
▁개막식	-11.3844
한진	-11.3844
▁사표	-11.3845
▁완도군	-11.3846
▁권영세	-11.3846
없어	-11.3846
▁극장	-11.3846
독립	-11.3847
슈퍼	-11.3848
▁올린다	-11.385
▁IOC	-11.3854
펫	-11.3856
▁극단선택	-11.386
윤종원	-11.386
협정	-11.3862
승계	-11.3862
▁충남대	-11.3863
▁경로당	-11.3863
청정	-11.3864
거부	-11.3865
▁추격	-11.3866
▁부울경	-11.3867
▁亞	-11.3868
작품	-11.387
▁맞불	-11.3871
검증	-11.3872
▁사용료	-11.3874
▁선거전	-11.3878
▁긴장감	-11.3878
라이프	-11.3879
▁식물	-11.3881
공단	-11.3884
90	-11.3884
▁전월세	-11.3884
교류	-11.3884
세입자	-11.3888
PD	-11.389
▁2018	-11.389
▁2360	-11.3891
▁관세	-11.3892
35	-11.3892
▁갤러리	-11.3894
▁극적	-11.3894
지분적립형	-11.3896
중견	-11.3896
25]	-11.3897
뉴딜펀드	-11.3898
▁"20	-11.3898
청문회	-11.3899
▁호빵	-11.39
전세난민	-11.3901
서학개미	-11.3901
징벌적	-11.3901
휴게소	-11.3901
동남권	-11.3901
틱톡	-11.3901
베이징	-11.3901
윤건영	-11.3901
▁국제사회	-11.3902
유승민	-11.3902
스타벅스	-11.3902
많이	-11.3904
정관계	-11.3906
▁전후	-11.3907
▁XX	-11.391
▁지지층	-11.391
한중일	-11.3913
▁갭투자	-11.3918
경찰청장	-11.392
동섭	-11.392
▁자가	-11.392
표현	-11.3925
협의체	-11.3925
▁손에	-11.3927
강사	-11.3927
▁검사실	-11.3931
▁장사	-11.3931
미군	-11.3934
DB	-11.3938
12'	-11.394
▁확정에	-11.3941
▁경산	-11.3945
▁조용한	-11.3945
전분기	-11.3946
▁정신건강	-11.395
▁한복	-11.395
▁시작부터	-11.3952
출신	-11.3953
실패	-11.3954
세로	-11.3954
▁나은	-11.3955
▁피소	-11.396
▁디스플레이	-11.3961
▁용산	-11.3966
준비	-11.3967
방한	-11.3968
국감현장	-11.3969
주주	-11.3972
콜센터	-11.3973
사장	-11.3979
▁DSR	-11.398
▁유기농	-11.3981
▁침체	-11.3983
시기	-11.3986
▁듣고	-11.3987
▁검	-11.3989
▁위치	-11.399
▁지원한다	-11.3992
▁토요일	-11.4
▁녹색	-11.4002
보험사	-11.4005
탑	-11.4007
▁JB	-11.4009
든든한	-11.401
▁교수들	-11.4013
▁위험요인	-11.4017
▁뒤로	-11.4022
▁노무현	-11.4022
▁놓인	-11.4028
▁않게	-11.4028
▁엇갈려	-11.4028
▁속도낸다	-11.4028
▁국가산단	-11.4028
▁웃돌아	-11.4028
▁생활임금	-11.4029
▁바란다	-11.403
이러니	-11.403
▁알았다	-11.403
줌인	-11.403
▁수젠텍	-11.4032
▁임시편	-11.4032
▁남동구	-11.4033
▁종결	-11.4034
▁전남도교육청	-11.4034
▁한화건설	-11.4034
▁남양유업	-11.4035
▁CNS	-11.4035
▁중증장애인	-11.4035
▁준공식	-11.4037
▁현대오일뱅크	-11.4037
▁대학병원장들	-11.4038
▁서천군	-11.4039
▁부산국제영화제	-11.4039
▁스위트	-11.404
▁정확	-11.404
▁판매글	-11.4041
▁교수팀	-11.4042
▁보통주	-11.4042
▁입관식	-11.4043
▁조경태	-11.4043
▁생모	-11.4043
▁톡신	-11.4044
▁전신	-11.4045
▁정당화	-11.4045
▁마윈	-11.4046
▁산업박람회	-11.4047
▁신공장	-11.4047
▁출사표	-11.4048
▁청년주택	-11.4049
▁공공임대주택	-11.4049
제보	-11.405
생건	-11.405
▁편입	-11.405
▁헌신	-11.4051
▁김승연	-11.4052
▁법제처장	-11.4053
▁SPC	-11.4053
▁김민석	-11.4054
▁정상회담	-11.4054
제조업	-11.4054
▁각광	-11.4058
▁스펙	-11.4059
라니	-11.406
▁일본인	-11.4061
▁고강도	-11.4061
▁해리	-11.4062
주민들	-11.4062
▁지역균형	-11.4062
▁탄압	-11.4062
광주시	-11.4063
▁자발적	-11.4063
▁조카	-11.4064
▁창구	-11.4064
▁본선	-11.4064
▁다문화	-11.4066
▁추락해	-11.4067
▁코레일	-11.4067
▁사활	-11.4068
▁추모제	-11.4069
비전	-11.4072
▁마비	-11.4075
집에서	-11.4075
▁추석날	-11.4077
▁한진택배	-11.4077
▁동반성장	-11.4077
▁웃음	-11.4078
신뢰	-11.4078
▁EBS	-11.4079
▁특집	-11.408
▁부르는	-11.408
▁군병원	-11.4081
▁압도적	-11.4082
▁바이든에	-11.4082
▁여지	-11.4085
어선	-11.4086
샤이	-11.4086
▁수영구	-11.4086
▁인문학	-11.4086
▁키즈	-11.4087
▁비타민	-11.4087
모처럼	-11.409
▁피한	-11.409
▁금융기관	-11.4095
출	-11.4096
골드	-11.4097
▁냈다	-11.4097
▁父	-11.4098
교육지원청	-11.4099
]1	-11.4099
▁불평등	-11.4099
▁침대	-11.4099
나이	-11.4099
..."4	-11.41
▁변호인	-11.4102
2~6	-11.4104
▁빈틈없	-11.4104
▁날려	-11.4105
원어치	-11.4106
해운대	-11.4107
첨단	-11.4109
외신	-11.4112
▁논의할	-11.4113
신사업	-11.4113
면접	-11.4114
화장실	-11.4115
트럼프는	-11.4116
블랙홀	-11.4116
시흥	-11.4117
그런	-11.4117
더샵	-11.4117
카뱅	-11.4118
방위비	-11.4118
구름	-11.4118
강풍	-11.4119
보건당국	-11.4119
전용	-11.4119
▁따	-11.4119
▁750	-11.412
▁공동체	-11.412
FDA	-11.412
특례시	-11.412
▁이끌어	-11.4121
KTX	-11.4121
골프장	-11.4122
▁비트코인	-11.4123
클린	-11.4125
열전	-11.4125
▁터미널	-11.4126
되고	-11.4128
다양	-11.4129
심야	-11.4134
▁점주	-11.4134
▁Z	-11.4134
▁의한	-11.4134
야간	-11.4135
▁기후위기	-11.4135
▁발열	-11.4136
▁캠프마켓	-11.4136
라더니	-11.4136
별장	-11.4138
대부분	-11.4139
▁국민이	-11.4144
▁VR	-11.4146
▁수출규제	-11.4147
▁서울중앙지검	-11.415
▁티	-11.415
이헌	-11.4155
팅	-11.4155
▁산정	-11.4161
▁밝히는	-11.4161
요건	-11.4169
▁인지	-11.4172
▁연구소	-11.4174
음식점	-11.4177
▁응급	-11.4177
▁잠	-11.4178
▁단정	-11.4179
▁판매한	-11.4182
▁맞아도	-11.4182
add	-11.4182
▁피자	-11.4186
▁흔들리	-11.4193
▁신의	-11.42
▁시작된	-11.4202
▁상처	-11.4205
...18	-11.4208
▁온라인몰	-11.4213
▁마산	-11.4216
▁울진	-11.4217
검사들	-11.4218
으로부터	-11.4218
양주	-11.4222
곳은	-11.4226
▁길이	-11.4228
▁걷	-11.4228
어치	-11.4228
▁내리	-11.4229
보험료	-11.4233
선서	-11.4238
버린	-11.4239
▁축	-11.4242
▁휴식	-11.4244
일제	-11.4244
▁뒷받침	-11.4245
免	-11.4245
▁떠났다	-11.4245
▁쓰러져	-11.4245
▁벌었다	-11.4246
▁수두룩	-11.4246
▁서둘러야	-11.4246
드디어	-11.4246
▁드러내	-11.4246
▁이병훈	-11.4246
▁재정분석	-11.4246
▁농촌일손돕기	-11.4247
▁운전면허	-11.4248
▁괜찮나	-11.4248
▁"6·25	-11.425
▁법세련	-11.425
▁김현아	-11.425
▁줄어든	-11.425
▁지방자치	-11.425
▁원인철	-11.4251
▁컨테이너선	-11.4252
▁전북교육청	-11.4252
▁늘자	-11.4252
▁삭감	-11.4252
▁도쿄증권거래소	-11.4252
▁제주관광공사	-11.4253
▁접속	-11.4253
▁한경연	-11.4254
▁놀란	-11.4254
경주	-11.4255
60	-11.4255
▁덕수궁	-11.4255
▁프리미어	-11.4255
▁ENM	-11.4255
▁통행료	-11.4258
▁속초시	-11.4259
▁넘는다	-11.4259
▁고위직	-11.426
▁현대중공업	-11.426
▁찾아라	-11.4261
▁방문규	-11.4261
오후반	-11.4261
▁코로나시대	-11.4261
▁김기	-11.4263
▁통행금지	-11.4263
▁휘발유	-11.4263
▁김승	-11.4265
▁옮겨	-11.4265
자형	-11.4265
신기술	-11.4266
▁발암물질	-11.4266
▁탈북민	-11.4267
버	-11.4269
▁뇌관	-11.4269
▁빌려	-11.4269
▁달력	-11.4269
▁안보보좌관	-11.4269
▁오늘도	-11.4269
▁높일	-11.427
▁밀린	-11.427
▁수성구	-11.427
▁니콜라	-11.4272
▁락앤락	-11.4272
불편	-11.4273
▁말레이	-11.4273
컵	-11.4273
이은주	-11.4273
...29	-11.4273
▁캘리포니아	-11.4275
▁국민연금공단	-11.4276
거의	-11.4276
▁정몽구	-11.4276
▁풀무원	-11.4277
▁임신부	-11.4277
▁공공배달앱	-11.4278
65	-11.4278
▁→	-11.4279
▁리포트	-11.4279
▁간식	-11.4279
▁하나금융투자	-11.428
▁언니	-11.4281
590	-11.4282
가능성	-11.4282
▁패딩	-11.4283
▁사과해야	-11.4284
지부	-11.4284
▁인사청문회	-11.4286
▁부장	-11.4287
▁개선해야	-11.4288
CK	-11.4288
▁한밤	-11.4288
▁버린	-11.4289
▁고액	-11.4289
연장	-11.429
▁한양대	-11.429
▁오나	-11.4293
▁잡기	-11.4294
▁신호	-11.4296
▁위장	-11.4296
▁시내	-11.4296
▁지속가능성	-11.4296
▁받나	-11.4296
▁원아	-11.4296
▁가자	-11.4297
▁분양권	-11.4297
▁세대교체	-11.4297
▁경	-11.4298
▁99	-11.4301
▁다큐	-11.4301
▁선장	-11.4301
▁금액	-11.4302
▁때마다	-11.4303
▁FBI	-11.4303
?···	-11.4304
▁소방차	-11.4304
▁단계적	-11.4304
▁레고랜드	-11.4306
...80	-11.4307
▁격	-11.4307
▁대표와	-11.431
성환	-11.431
▁급등에	-11.431
김치	-11.4311
▁선택한	-11.4311
취재	-11.4315
노무현	-11.4317
▁무사	-11.432
▁실종자	-11.4322
▁고령층	-11.4322
▁윙	-11.4323
이전	-11.4324
▁민관	-11.4325
▁타이핑	-11.4328
하더니	-11.4329
▁장터	-11.4332
민주화운동	-11.4332
넷	-11.4333
타임	-11.4333
콘서트	-11.4337
대구은행	-11.4337
병용	-11.4337
농협카드	-11.4338
새만금	-11.4339
공포	-11.4339
셀프	-11.434
▁WTI	-11.434
스티브	-11.4341
-1...	-11.4341
증거금	-11.4341
청신호	-11.4341
마크롱	-11.4341
반드시	-11.4342
보이스피싱	-11.4343
구급차	-11.4343
▁노인들	-11.4344
조건부	-11.4344
▁고금리	-11.4344
종사자	-11.4345
▁동향	-11.4353
개정	-11.4353
동성	-11.4353
▁후끈	-11.4354
연간	-11.4356
▁울릉도	-11.4357
등교수업	-11.4357
▁병원장	-11.4358
철저한	-11.4359
관한	-11.4361
▁앱으로	-11.4362
▁재판부	-11.4363
▁태극기	-11.4365
예상	-11.4365
▁그들	-11.4366
이어	-11.437
증가	-11.4371
▁유족에	-11.4374
▁아들이	-11.4376
▁경기도민	-11.4377
한성숙	-11.4381
▁토스	-11.4386
▁9%	-11.4386
배우	-11.439
보고회	-11.439
41	-11.4393
학급	-11.4395
▁과도한	-11.4396
▁하동군	-11.4396
▁짓	-11.4397
승남	-11.4399
극	-11.44
▁후속	-11.4404
▁유물	-11.4406
금액	-11.4409
공방	-11.441
▁타는	-11.4411
국산	-11.4413
▁열사능	-11.4417
▁실	-11.4419
▁연구진	-11.4421
▁연출	-11.4427
▁인플루언서	-11.4435
in	-11.4443
▁침입	-11.4448
진정	-11.445
▁절반으로	-11.4452
주의보	-11.4453
▁피격사건	-11.4455
▁부천시	-11.4456
▁수사관	-11.4459
▁근처	-11.4459
▁푼	-11.4459
▁월가	-11.4459
▁시달리	-11.446
자유	-11.4461
▁살린	-11.4461
▁남해군	-11.4462
▁힉스	-11.4464
▁가운데	-11.4467
▁갇힌	-11.4467
변희수	-11.4467
▁쓰세요	-11.4468
▁뭐했나	-11.4468
▁원광대	-11.4468
▁baseball	-11.4469
▁트리풀시티	-11.4469
이시종	-11.4469
▁접목	-11.4469
▁석권	-11.447
▁Vs	-11.447
▁문제없어	-11.447
5%	-11.447
▁행태	-11.4472
▁낮게	-11.4472
▁수확철	-11.4474
▁도달	-11.4476
▁입항	-11.4476
▁재조정	-11.4477
▁of	-11.4477
▁건축상	-11.4477
▁유경준	-11.4478
▁Samsung	-11.4478
▁사학연금	-11.4478
▁면세품	-11.448
▁보육교사	-11.448
▁낙폭	-11.448
▁쿠웨이트	-11.448
▁조은희	-11.448
▁위험하다	-11.4481
▁맥	-11.4483
▁원천봉쇄	-11.4484
▁결집	-11.4484
▁유산균	-11.4484
▁국가신용등급	-11.4484
▁엄중	-11.4485
▁녹취록	-11.4486
▁특별입국절차	-11.4487
하면서	-11.4487
▁블랙	-11.4487
▁손편지	-11.4488
▁해태	-11.4488
입찰	-11.4488
▁사회적경제기업	-11.4489
▁신품종	-11.4489
▁억새	-11.4489
▁겪는	-11.4491
▁NHN	-11.4491
▁실업급여	-11.4492
일자	-11.4493
▁지검장	-11.4493
▁‘2021	-11.4494
▁핀란드	-11.4495
▁남원	-11.4495
▁경기교육청	-11.4495
▁펑펑	-11.4496
▁업주	-11.4497
▁족쇄	-11.4498
도민	-11.4498
▁정면충돌	-11.4498
▁편집	-11.4498
요구	-11.4499
작은	-11.45
▁공공일자리	-11.45
▁메가시티	-11.4501
▁김도읍	-11.4501
▁초중고	-11.4502
구미	-11.4503
공모	-11.4503
▁면밀	-11.4503
▁윤상현	-11.4504
▁짓는	-11.4506
조합	-11.4507
▁원스톱	-11.4509
▁중순	-11.4509
▁블랙이글스	-11.4509
혜택	-11.4509
▁디지털화	-11.451
캠페인	-11.451
▁뒤집어	-11.4511
▁발표에	-11.4511
▁참모	-11.4511
증상	-11.4512
▁둘러보	-11.4512
▁머리카락	-11.4515
김대	-11.4515
▁에스퍼	-11.4515
▁조주빈에	-11.4519
▁통고	-11.452
▁최문순	-11.4521
▁전략무기	-11.4522
청원	-11.4522
년연속	-11.4523
▁엔터테인먼트	-11.4524
▁SBS	-11.4524
▁158	-11.4524
380	-11.4527
▁신공항	-11.4529
▁감정	-11.4529
▁학술	-11.4532
▁윤갑근	-11.4532
▁내라	-11.4532
▁"9	-11.4535
▁자재	-11.4537
▁AR	-11.4538
신생아	-11.4538
▁기차	-11.4539
▁광군제	-11.4541
▁유동성	-11.4542
▁재테크	-11.4542
▁순위	-11.4546
▁철퇴	-11.4547
랜드	-11.4547
▁치열한	-11.4547
아이들	-11.455
▁포용	-11.455
벼	-11.455
▁만화	-11.4552
천건	-11.4552
▁법인카드	-11.4553
▁참석자	-11.4555
▁군대	-11.4557
▁고지	-11.4558
밀양	-11.456
▁고위	-11.456
트윈데믹	-11.4562
YTN	-11.4563
▁북한에	-11.4564
부글부글	-11.4564
쌀	-11.4565
유니콘	-11.4565
▁추진한다	-11.4565
급락	-11.4566
SLBM	-11.4567
전자발찌	-11.4568
부정선거	-11.4568
채동욱	-11.4568
그랜드	-11.4569
프리	-11.4569
오바마	-11.4569
수돗물	-11.4569
재수감	-11.4569
프로젝트	-11.4569
과태료	-11.4569
치매	-11.457
응원	-11.4573
부검	-11.4576
목포	-11.458
▁불합리	-11.4586
▁104	-11.4587
▁지고	-11.4587
▁독감접종	-11.4588
▁전소	-11.4588
고양이	-11.4589
▁가속도	-11.4589
▁전자발찌	-11.4593
▁운영위	-11.4594
▁방문해	-11.4596
▁손배	-11.4598
▁특	-11.4599
▁금융의	-11.46
▁취재	-11.4601
▁전설	-11.4602
▁“5	-11.4603
▁말하는	-11.4606
▁졌다	-11.4611
외국	-11.4616
▁살려	-11.4616
▁47%	-11.4619
칠	-11.4619
관계자	-11.462
끝	-11.4623
▁3500	-11.4624
▁서초	-11.4625
▁세운	-11.4633
▁군포	-11.4634
▁치료비	-11.4636
▁일원	-11.466
▁수준으로	-11.4666
▁몫	-11.4666
▁지인모임	-11.4667
▁신청서	-11.4667
워	-11.4667
▁IR	-11.4675
▁팔려	-11.4676
현장에서	-11.4677
참여	-11.4677
치고	-11.4677
▁배경	-11.4679
▁담임	-11.468
▁고위공직자	-11.468
▁국민에	-11.4686
▁3.3	-11.4686
▁병실	-11.4687
▁재보궐	-11.469
▁포항서	-11.469
▁뒤에	-11.4692
일문일답	-11.4695
▁맛보세요	-11.4695
▁벌어져	-11.4695
푸드빌	-11.4695
pic	-11.4695
▁불구속기소	-11.4695
▁합숙	-11.4696
▁철문	-11.4696
▁분향소	-11.4697
▁뒤집힌	-11.4697
▁많았다	-11.4697
▁최지만	-11.4697
▁소실	-11.4697
▁서울남부지검	-11.4697
▁최고령	-11.4698
▁세운다	-11.4699
하도록	-11.4699
▁대구시의회	-11.4699
▁입맛	-11.47
▁관장	-11.47
▁무력화	-11.47
▁때리고	-11.4701
초과	-11.4701
선전	-11.4702
▁혼조	-11.4702
▁숨진채	-11.4704
▁날았다	-11.4704
▁법제화	-11.4705
▁위령제	-11.4705
▁김진숙	-11.4705
▁인삼	-11.4706
▁감사패	-11.4706
▁농진청	-11.4707
▁소방공무원	-11.4707
▁중독	-11.4707
▁무용학원	-11.471
▁이효재	-11.471
▁제임스	-11.4711
▁설득	-11.4712
▁최적화	-11.4712
▁되나요	-11.4713
▁정배우	-11.4713
▁급성장	-11.4713
▁관	-11.4714
▁참가기업	-11.4715
▁든다	-11.4715
▁조항	-11.4715
▁인기몰이	-11.4717
▁개편안	-11.4717
▁한국이	-11.4718
▁취약계층에	-11.4719
▁할아버지	-11.4719
▁급물살	-11.472
▁우크라이나	-11.472
▁국정	-11.472
▁네이버쇼핑	-11.4721
▁라임자산운용	-11.4722
ine	-11.4723
▁농업인	-11.4723
▁손잡	-11.4723
▁종합대책	-11.4723
▁사퇴하라	-11.4725
▁혁신성장	-11.4728
▁CNN	-11.4729
▁경우	-11.4729
▁인수전	-11.4729
▁급격	-11.4729
천여명	-11.473
▁f	-11.473
▁표	-11.4731
▁왕	-11.4732
▁수렴	-11.4732
▁챙긴다	-11.4733
▁옥천군	-11.4734
▁지뢰	-11.4734
이웃	-11.4736
▁당신	-11.4736
▁전반	-11.4736
▁체육	-11.4737
블루	-11.4738
진보	-11.474
▁경호처	-11.4741
▁지킴이	-11.4741
▁표시	-11.4741
▁보상금	-11.4744
목욕탕	-11.4745
▁진천군	-11.4748
체육시설	-11.4748
▁발주	-11.4749
포기	-11.475
▁신산업	-11.4751
▁사이트	-11.4751
국방	-11.4752
▁2.2	-11.4752
재선	-11.4753
▁2700	-11.4753
▁식량	-11.4754
▁뇌물수수	-11.4755
▁석유화학	-11.4756
절도	-11.4756
지원사업	-11.4757
▁85%	-11.4759
▁받지	-11.476
방탄	-11.4761
▁현택환	-11.4761
▁심한	-11.4763
▁내년까지	-11.4763
▁세무조사	-11.4764
▁2300	-11.4765
가을맞이	-11.4766
▁떠	-11.4766
▁인용	-11.4767
34	-11.4768
서울서	-11.477
▁IP	-11.4771
▁걸릴	-11.4771
▁주담대	-11.4772
▁세워	-11.4774
▁선진국	-11.4783
병무청	-11.4783
▁육아	-11.4785
▁우리동네	-11.4786
▁발동에	-11.4788
▁전북서	-11.4788
▁선관위	-11.4791
센트럴	-11.4791
▁치	-11.4792
성희롱	-11.4793
거래소	-11.4793
▁분류	-11.4795
케이블카	-11.4796
정규직	-11.4797
벌써	-11.4798
▁명분	-11.4798
▁저금리	-11.4799
▁가족과	-11.4799
코호트	-11.48
손님	-11.4801
풍	-11.4801
제네시스	-11.4801
야스쿠니	-11.4802
몸수색	-11.4802
아프리카돼지열병	-11.4802
유은혜	-11.4802
▁구제역	-11.4802
▁미지급	-11.4804
고향	-11.4805
배임	-11.4806
사전투표	-11.4809
▁나쁨	-11.481
▁대중	-11.4812
▁벌어	-11.4812
▁매매가	-11.4813
비리	-11.4815
괴물	-11.4817
▁사장님	-11.4822
▁벗어나	-11.4822
라임수사	-11.4827
▁미국에	-11.4829
▁기본계획	-11.4831
VR	-11.4831
션	-11.4835
▁비스포크	-11.4836
▁충격에	-11.4836
▁영암	-11.4836
700	-11.4836
▁나이	-11.4837
▁36%	-11.4839
(?)	-11.484
▁경북서	-11.484
보안	-11.4843
게이트	-11.4844
▁오만	-11.4844
농장	-11.4844
▁직원에	-11.4849
▁치료제로	-11.4853
빅테크	-11.4857
▁위생	-11.4858
▁MS	-11.4859
복지재단	-11.4859
이야기	-11.4861
일요일	-11.4863
▁구축사업	-11.4863
▁독	-11.4864
▁지식	-11.4868
나서	-11.487
...24	-11.487
취소	-11.4872
▁115	-11.4873
▁독설	-11.4876
▁극심	-11.4877
▁미응시	-11.4881
▁하지	-11.4882
아스트라제네카	-11.489
▁초고층	-11.489
▁아닌데	-11.4891
▁은행들	-11.4891
▁있는데	-11.4893
▁미투	-11.4894
▁집단소송	-11.4895
▁건가	-11.4898
▁침	-11.4898
원조	-11.4899
민원	-11.49
시작	-11.4901
Z	-11.4902
면서	-11.4903
부장	-11.4905
부담	-11.4906
▁대선주자	-11.4908
재개	-11.491
▁함	-11.491
장학금	-11.4911
거대	-11.4911
▁동원해	-11.4919
항공기	-11.4921
▁강화한다	-11.4922
엽	-11.4923
▁부합	-11.4924
委	-11.4927
텔레닉스	-11.4927
기업성장응답센터	-11.4927
▁조재연	-11.4927
▁단체교섭	-11.4927
▁찍었다	-11.4927
▁예산정책협의회	-11.4928
▁사하구	-11.4928
▁이관	-11.4928
▁향연	-11.4929
▁한국기업지배구조원	-11.4929
가끔	-11.4929
▁마침표	-11.4929
▁송갑석	-11.4929
▁경북교육청	-11.493
▁바이오시밀러	-11.4932
▁높여야	-11.4932
▁담양군	-11.4932
▁줄이는	-11.4934
▁뛴다	-11.4934
▁최정우	-11.4935
▁노부부	-11.4935
▁1.3	-11.4936
▁구리시	-11.4937
▁청사진	-11.4939
결정	-11.4939
▁위로전	-11.4939
▁아주캐피탈	-11.4941
▁소방헬기	-11.4941
제조	-11.4941
▁공무원들	-11.4943
▁원룸	-11.4943
▁온누리상품권	-11.4944
”[	-11.4944
▁신상공개	-11.4944
▁격리해제	-11.4944
▁공동성명	-11.4945
▁거인으로	-11.4945
▁우원식	-11.4947
▁페루	-11.4947
▁일손	-11.4948
▁단식	-11.4948
▁오라	-11.4948
▁주민자치회	-11.495
▁토끼	-11.495
▁치고	-11.4951
▁거액	-11.4952
▁농특산물	-11.4952
▁이원욱	-11.4953
▁수협	-11.4954
발전소	-11.4954
▁화학상	-11.4954
▁하나로	-11.4955
▁막기	-11.4955
▁137	-11.4956
▁막고	-11.4956
▁생가	-11.4956
▁시술	-11.4957
▁대면수업	-11.4957
권익위	-11.4957
▁밀그럼	-11.4958
▁점점	-11.4958
부자	-11.4958
▁터져	-11.4959
▁홈런	-11.4959
▁만개	-11.4961
▁스타트	-11.4961
▁이어지는	-11.4962
▁창문	-11.4963
▁텅	-11.4963
▁합성	-11.4963
▁법정서	-11.4965
▁박성민	-11.4966
▁원산지	-11.4966
▁자원	-11.4967
▁부위원장	-11.4967
▁사과문	-11.4967
▁롯데호텔	-11.4968
▁청년위원장	-11.4968
▁사료	-11.4969
▁제자리	-11.4971
▁거꾸로	-11.4971
▁무장	-11.4971
▁충청권	-11.4972
▁'36	-11.4972
▁운동장	-11.4974
▁입주기업	-11.4975
▁대형학원	-11.4976
▁승자는	-11.4976
▁나간	-11.498
▁가상	-11.4983
▁비호	-11.4985
▁기업의	-11.4987
▁푸드	-11.4988
▁클로	-11.4988
▁제자	-11.4989
▁다주택자	-11.4989
▁화천군	-11.4991
▁늦출	-11.4992
인식	-11.4993
▁통감	-11.4994
▁엉터리	-11.4995
▁퍼스트	-11.4997
▁대리점	-11.4997
실업	-11.4998
좌	-11.4999
▁안경	-11.5
부담금	-11.5
례	-11.5004
▁파크	-11.5005
▁전사자	-11.5006
▁박수치	-11.5007
▁총리실	-11.501
▁영화제	-11.5012
▁입국금지	-11.5016
의료원	-11.5017
45	-11.5018
▁영주댐	-11.5021
▁장모	-11.5021
유죄	-11.5022
▁담보	-11.5024
얼음	-11.5025
▁입당	-11.5026
▁유재수	-11.5027
▁공동연구	-11.503
▁경제계	-11.503
생명과학	-11.5031
反	-11.5032
자율주행	-11.5032
동명이인	-11.5032
▁등으로	-11.5032
튼	-11.5033
감정원	-11.5034
그럼	-11.5034
가족합산	-11.5035
MZ	-11.5036
기념물	-11.5036
무늬만	-11.5037
한산	-11.5037
▁미미	-11.5037
▁임영웅	-11.5038
협치	-11.5038
와르르	-11.5038
수사지휘	-11.5039
UAE	-11.5039
덕분에	-11.5039
도쿄올림픽	-11.5039
조수진	-11.504
플로리다	-11.504
몰카	-11.504
김재현	-11.504
광화문광장	-11.504
장제원	-11.504
첩보	-11.504
롯데택배	-11.504
▁추진해야	-11.504
▁민주적	-11.5041
공시가격	-11.5042
▁과로	-11.5042
숨진	-11.5043
▁검찰에	-11.5043
▁경제회복	-11.5043
유럽증시	-11.5044
집유	-11.5044
금융당국	-11.5045
성관계	-11.5047
▁상자	-11.5048
▁해법은	-11.5057
일반	-11.5059
만이	-11.5062
▁바람직	-11.5062
▁4·3	-11.5064
▁문서	-11.5068
진심	-11.5069
상금	-11.5073
▁구분	-11.5075
′′	-11.5075
▁회복에	-11.508
▁메	-11.5082
▁라이더	-11.5084
▁날씨에	-11.5086
▁MD	-11.5086
시켜	-11.5087
▁산청	-11.5088
초에	-11.5092
▁43%	-11.5096
가계	-11.5097
▁신종	-11.5103
▁택배사	-11.5107
▁I	-11.5108
▁수십억	-11.5108
아프리카	-11.5109
▁상태로	-11.5114
지시	-11.5118
▁병상	-11.5119
▁시각장애인	-11.512
반등	-11.5124
지금은	-11.5125
혜	-11.5126
▁사태에	-11.5126
▁사업에	-11.5128
▁안에서	-11.5129
특별법	-11.5129
69	-11.513
▁전용기	-11.5131
주당	-11.5134
살인	-11.5134
▁귀농	-11.5135
▁38%	-11.5138
▁정수장	-11.5138
▁자본	-11.514
▁퇴직자	-11.5141
▁그늘	-11.5142
차단	-11.5145
▁비결	-11.5147
걱정	-11.515
위안	-11.5152
우리나라	-11.5152
▁성지	-11.5153
▁의원에	-11.5156
▁동양	-11.5158
▁콜	-11.5159
▁싫어	-11.5161
▁신남방	-11.5161
▁낮춘	-11.5163
▁존슨	-11.5164
▁촛불	-11.5164
국감장	-11.5164
▁국민권익위원장	-11.5166
▁최적임자	-11.5166
▁무너졌다	-11.5166
▁조재범	-11.5166
▁창설	-11.5166
▁행정처분	-11.5166
▁바꿨다	-11.5166
▁생분해	-11.5166
▁얼룩	-11.5167
▁국가철도공단	-11.5167
▁경축	-11.5167
▁않기로	-11.5168
▁중국어선	-11.5168
▁발판	-11.5169
▁이어갈	-11.5169
▁미끼	-11.5169
▁패러다임	-11.517
▁앨범	-11.517
▁귀환	-11.5171
▁크고	-11.5171
▁햇	-11.5171
▁관철	-11.5172
▁전시장	-11.5173
▁46%	-11.5173
▁카슈가르	-11.5173
▁법무법인	-11.5174
▁“10	-11.5174
▁철거명령	-11.5174
▁영월군	-11.5175
▁심정지	-11.5176
국장	-11.5176
▁한국공항공사	-11.5176
▁소홀	-11.5176
▁특사경	-11.5176
▁예	-11.5177
▁강아지	-11.5179
▁크라우드펀딩	-11.5179
▁공중화장실	-11.5179
▁크루즈	-11.5179
▁신청하세요	-11.5179
▁평생학습	-11.5181
시킬	-11.5182
▁함안군	-11.5182
▁집단체조	-11.5183
▁유용	-11.5183
▁파기	-11.5184
원칙	-11.5184
▁한국감정원	-11.5184
▁광견병	-11.5185
소설	-11.5186
▁춥다	-11.5186
▁연구용역	-11.5186
▁모양	-11.5186
그림	-11.5187
▁경비	-11.5187
홍보	-11.5188
금융투자	-11.5188
▁바이브컴퍼니	-11.5188
발표	-11.519
▁연평균	-11.5191
▁스페이스	-11.5191
▁모텔	-11.5192
▁몸통	-11.5192
▁단호	-11.5192
▁화학	-11.5192
▁주먹	-11.5192
▁퇴직금	-11.5193
▁줄기세포	-11.5193
▁전북은행	-11.5194
▁가평	-11.5194
지면	-11.5194
노조법	-11.5195
▁뒷돈	-11.5195
본토	-11.5195
줘	-11.5196
까진	-11.5197
’·‘	-11.5197
▁IoT	-11.5198
▁쌍방향	-11.5198
▁강진군	-11.5198
▁범인	-11.5199
▁출퇴근	-11.5199
대깨문	-11.5202
▁소비심리	-11.5202
천개	-11.5203
▁택배노조	-11.5204
▁갤러리아	-11.5205
▁희비	-11.5207
▁온도차	-11.5207
▁결과에	-11.521
▁상인들	-11.521
▁신빙성	-11.521
공정성	-11.521
▁갈등에	-11.5211
변창	-11.5212
▁유니클로	-11.5213
▁국기	-11.5219
▁인선	-11.5222
▁계속되는	-11.5222
▁79	-11.5222
▁역시	-11.5225
▁장세	-11.5225
▁엔터	-11.5226
▁인사들	-11.5228
▁패닉	-11.5229
▁부끄러운	-11.5229
▁징용	-11.5229
▁먼	-11.5231
사이트	-11.5233
▁김정은에	-11.5233
▁조사해야	-11.5234
▁서울반도체	-11.5234
▁조광	-11.5234
▁전투기	-11.5234
▁>	-11.5237
▁아니면	-11.5237
▁신문	-11.5237
지나	-11.5237
▁경호원	-11.5238
▁품목	-11.5241
▁현장에서	-11.5242
▁공개해야	-11.5246
▁대전시장	-11.5246
▁농민	-11.5246
▁파일	-11.5246
사이버	-11.5247
▁탄소중립	-11.5247
rd	-11.5248
▁이겨낼	-11.525
만마리	-11.525
저도	-11.5251
ies	-11.5253
양국	-11.5256
▁롤러블	-11.5257
▁한국의	-11.5257
공동체	-11.5257
▁방일	-11.5258
로또	-11.5258
▁이부진	-11.5259
▁한국경제	-11.5259
싱	-11.526
▁기후	-11.526
▁가위	-11.5262
▁상식	-11.5265
▁진정세	-11.5265
NO	-11.5265
▁기본권	-11.5266
▁모은	-11.5267
▁균형발전	-11.5268
▁↑...	-11.5268
상환	-11.5268
전형	-11.5269
▁지역별	-11.5269
▁1140	-11.527
▁가습기	-11.5272
▁선수들	-11.5272
▁북한군	-11.5273
▁유학	-11.5273
▁열리는	-11.5274
▁사생활	-11.5274
개로	-11.5275
IC	-11.5275
▁특구	-11.5275
경쟁력	-11.5276
해설	-11.5279
南	-11.5279
반짝	-11.5279
재확산	-11.528
LED	-11.528
모레	-11.5281
진상규명	-11.5282
노동개혁	-11.5282
▁63%	-11.5283
新	-11.5283
넷플릭스	-11.5283
김경수	-11.5284
▁몰아	-11.5285
부채	-11.5285
자영업자	-11.5286
만으로	-11.5286
따뜻한	-11.5288
경기부양책	-11.5288
의원님	-11.5289
옥중	-11.5289
▁한국은	-11.5291
▁선영	-11.5291
▁하이	-11.5294
계단	-11.5296
긍정적	-11.5296
사와	-11.5298
▁SLBM	-11.5301
▁일선	-11.5301
▁정상들	-11.5302
▁바다로	-11.5303
▁전국민	-11.5304
안산	-11.5306
여대	-11.5308
▁그런	-11.5308
이사장	-11.5311
▁헤어	-11.5315
▁쟁점은	-11.5317
영어	-11.5319
▁유사	-11.5323
보는	-11.5325
전원	-11.5329
▁캠퍼스	-11.5339
디지털세	-11.5341
▁자살	-11.5341
대학원	-11.5341
▁어기	-11.5343
▁과학기술	-11.5347
은행권	-11.535
▁안하면	-11.535
절대	-11.5355
대통령에	-11.5357
해서	-11.5357
체육	-11.536
▁시민이	-11.5361
▁맹폭	-11.5363
▁번에	-11.5365
충주	-11.5366
대구시	-11.537
동선	-11.5371
▁받으면	-11.5372
▁타이완	-11.5372
간부	-11.5375
▁이뤄	-11.538
회계	-11.5382
김학도	-11.5384
▁유효	-11.5386
▁상고	-11.5388
▁생산성	-11.539
분기에	-11.539
▁가능성도	-11.5393
▁조리	-11.5401
구멍	-11.5402
씬	-11.5403
▁평검사	-11.5405
▁만끽	-11.5405
▁걸렸다	-11.5406
▁26%	-11.5407
▁맡아	-11.5408
▁끌려	-11.5409
▁놓치	-11.5409
▁김관진	-11.5409
▁월스트리트	-11.5409
환경성적표지	-11.5409
▁깔려	-11.5409
▁글릭	-11.541
▁아니냐	-11.541
▁다가온	-11.541
▁경상수지	-11.5411
▁당황	-11.5411
▁전북도의회	-11.5412
▁가로수	-11.5413
▁감싸기	-11.5414
진우	-11.5414
▁방사포	-11.5414
▁SBI	-11.5415
▁뒤져	-11.5415
▁코오롱	-11.5415
▁산책	-11.5415
▁어기고	-11.5417
▁열사	-11.5417
▁불이익	-11.5417
▁몰락	-11.5418
▁절	-11.5418
▁만전	-11.5418
▁신세계그룹	-11.5419
▁늘어난다	-11.5419
▁차익	-11.542
▁위로전문	-11.542
▁음란행위	-11.542
▁경제부총리	-11.5421
▁고개숙	-11.5422
▁백신과	-11.5423
▁이종배	-11.5423
▁강기윤	-11.5424
▁수사의뢰	-11.5424
▁증발	-11.5424
▁대사대리	-11.5424
▁미확인	-11.5424
▁업적	-11.5425
▁전세보증금	-11.5425
▁수매	-11.5425
▁풀어야	-11.5425
▁격리시설	-11.5426
▁안타까워	-11.5427
▁풍부	-11.5427
흔들	-11.5428
▁이베이코리아	-11.543
▁걸고	-11.543
▁이수정	-11.543
▁스카이	-11.5431
▁주최	-11.5431
▁'6	-11.5432
▁주행	-11.5432
▁사체	-11.5432
▁버려진	-11.5433
▁볼리비아	-11.5433
▁통계청장	-11.5434
금융사	-11.5434
▁금호	-11.5434
▁유료	-11.5436
▁이만희	-11.5436
▁공존	-11.5436
▁창조	-11.5437
미리	-11.544
▁진통	-11.5442
▁섬진강	-11.5442
▁시몬스	-11.5442
▁우버	-11.5443
▁전까지	-11.5443
▁보전	-11.5443
경매	-11.5443
▁디	-11.5445
▁수출입은행	-11.5445
▁구리	-11.5449
▁되풀이	-11.5449
▁관광비행	-11.5449
▁본상	-11.5449
▁양양군	-11.545
▁재수사	-11.5451
▁알뜰폰	-11.5452
▁노동계	-11.5452
▁적임자	-11.5453
▁성접대	-11.5453
▁선다	-11.5453
여수	-11.5454
▁소중한	-11.5454
▁육아휴직	-11.5455
▁알선	-11.5456
▁순찰	-11.5457
▁안전하게	-11.5457
▁만평	-11.5458
▁156	-11.5458
▁560	-11.5459
▁후에도	-11.546
똑똑한	-11.5467
▁운용사	-11.5469
▁회장님	-11.547
▁기업가치	-11.547
▁공부방	-11.547
▁4·15	-11.5473
▁중태	-11.5473
▁영세	-11.5473
철강	-11.5475
목표	-11.5476
▁배당금	-11.5478
파는	-11.548
▁SH	-11.5483
장애	-11.5484
가족모임	-11.5485
▁어민	-11.5487
▁오락가락	-11.5487
센	-11.5488
▁조선대	-11.5494
▁전기요금	-11.5505
▁체크	-11.5505
▁순천대	-11.5508
▁분노한	-11.551
▁“1	-11.551
▁법조	-11.551
가맹점	-11.5512
▁승무원	-11.5514
정당	-11.5516
육군	-11.5516
마포	-11.5517
▁보름	-11.5517
▁전지	-11.5518
▁그리	-11.552
▁배우는	-11.5521
조속	-11.5521
지휘권	-11.5521
갭투자	-11.5523
▁예의	-11.5525
김신조	-11.5527
▁예년	-11.5527
▁구로	-11.553
방탄국회	-11.553
풍력	-11.5531
오브라이언	-11.5531
반찬	-11.5532
설치	-11.5532
나흘	-11.5532
오픈	-11.5532
아이스크림	-11.5533
챌린지	-11.5533
알고보니	-11.5533
▁속에서	-11.5533
조달청	-11.5533
송현동	-11.5533
박덕흠	-11.5533
푸틴	-11.5533
온실가스	-11.5534
무면허	-11.5534
부통령	-11.5534
무증상	-11.5534
고위험시설	-11.5534
막말	-11.5534
차량시위	-11.5534
징용	-11.5535
▁아미	-11.5536
▁예술인	-11.5538
요트	-11.5539
정말	-11.5539
구축	-11.5541
많은	-11.5541
위원	-11.5543
▁설치된	-11.5543
단풍철	-11.5544
▁화면	-11.5545
견제	-11.5545
▁공정성	-11.5545
▁입대	-11.5549
▁라이프	-11.5549
위드	-11.5552
당내	-11.5553
홍희	-11.5554
▁물의	-11.5555
▁묘	-11.5558
▁공사현장	-11.5561
보증금	-11.5561
▁달고	-11.5562
▁깨	-11.5564
▁108	-11.5564
원에	-11.5568
▁잃어	-11.5569
▁감식	-11.5572
리콜	-11.5575
성역	-11.5575
▁공세에	-11.5576
▁경제적	-11.5576
▁디지털성범죄	-11.5576
▁푸	-11.5579
▁시한	-11.558
고개	-11.5581
▁고인	-11.5582
▁최신원	-11.5584
..'	-11.5586
홍대	-11.559
▁1130	-11.559
▁복지위	-11.5597
영화관	-11.5597
석의	-11.5598
~12	-11.56
▁고속	-11.5603
▁다산	-11.5603
▁종합계획	-11.5603
▁의향	-11.5604
▁홀딩스	-11.5605
충전	-11.5605
▁논평	-11.5612
▁보잉	-11.5614
▁보여준	-11.5622
고의	-11.5622
침	-11.5622
▁감천항	-11.5625
만명분	-11.5629
▁경제협력	-11.5632
100%	-11.5635
기소	-11.5635
▁수련회	-11.5636
발생	-11.5639
▁커머스	-11.5641
경계	-11.5644
자전거	-11.5644
▁종이	-11.5644
▁44%	-11.5649
▁후임	-11.5651
▁펼치	-11.5652
▁95%	-11.5654
▁19%	-11.5655
▁경청	-11.5655
▁최고위원	-11.5657
▁지원자	-11.5657
▁빅테크	-11.5658
▁보여줘	-11.5658
호의	-11.5658
트롬	-11.5659
▁첫선	-11.5659
▁멈춘	-11.5659
▁낚시어선	-11.5659
▁외무장관	-11.566
▁않으면	-11.566
▁운운	-11.566
▁과반	-11.566
의료기관	-11.5661
▁빨라진다	-11.5661
▁경축식	-11.5661
▁Group	-11.5661
▁특화설계	-11.5661
▁제주도지사	-11.5662
▁신축공사장	-11.5663
▁제한조치	-11.5663
화천서	-11.5663
▁대전교육청	-11.5664
▁부차관보	-11.5664
▁재발급	-11.5665
죄질	-11.5665
▁몰리는	-11.5665
▁이명희	-11.5665
▁오명	-11.5667
▁두산솔루스	-11.5667
▁당기순이익	-11.5667
▁나체	-11.5668
▁자제해야	-11.5668
▁프레시지	-11.5668
▁포장재	-11.5668
▁고려해야	-11.567
▁대구교육청	-11.567
▁안동시장	-11.567
▁뮤비	-11.5671
▁2350	-11.5672
▁오너	-11.5673
▁현대자동차	-11.5674
▁국감일정	-11.5674
▁무디스	-11.5674
▁김종갑	-11.5674
▁발송	-11.5675
도주	-11.5677
▁끼쳐	-11.5677
▁이춘재	-11.5677
▁밀라노	-11.5677
▁압승	-11.5677
▁겸직	-11.5678
▁동포	-11.5678
확보	-11.5679
▁어깨	-11.5679
립	-11.5681
▁이달말	-11.5681
연수	-11.5682
▁중공군	-11.5685
▁피할	-11.5685
▁유보소득	-11.5686
▁가겠다	-11.5686
통신비	-11.5689
▁난다	-11.569
▁떡	-11.5693
▁전환사채	-11.5693
▁벤틀리	-11.5693
▁입영	-11.5693
▁미코바이오메드	-11.5697
▁동북아	-11.5697
▁끈	-11.5697
▁고용부	-11.5697
양산	-11.5698
▁뉴스공장	-11.5699
▁면죄부	-11.57
▁맛집	-11.57
▁고등학생	-11.57
민주당은	-11.5702
▁HMR	-11.5703
▁성일종	-11.5703
▁당사자	-11.5706
▁도우미	-11.5706
▁대통령에게	-11.5709
▁줘야	-11.5709
▁한국판뉴딜	-11.5709
▁배진교	-11.5712
▁석탄	-11.5713
즉각	-11.5713
▁구독자	-11.5715
▁울주군	-11.5715
▁학종	-11.5716
▁기대치	-11.5716
조문	-11.5717
▁불붙은	-11.5718
▁최고금리	-11.5721
▁간편결제	-11.5722
▁급속	-11.5722
→1	-11.5722
옷	-11.5724
▁국도	-11.5726
▁물에	-11.5726
레이션	-11.5727
▁탈세	-11.5727
▁서산시	-11.5728
조목	-11.5728
▁넉	-11.5729
폭발	-11.5729
▁될라	-11.5732
▁참전용사	-11.5732
▁따상	-11.5732
▁톡	-11.5732
▁낙하산	-11.5733
4·3	-11.5734
▁화보	-11.5736
▁反	-11.5736
▁한국품질만족지수	-11.5736
▁속도전	-11.5738
▁불신	-11.5738
상원	-11.5739
돕기	-11.5739
▁대부업	-11.5739
▁직권남용	-11.5739
▁항미원조	-11.5739
▁본드	-11.574
▁82	-11.5741
▁취득세	-11.5741
▁지킬	-11.5742
트럭	-11.5743
▁친문	-11.5745
▁남측에	-11.5746
▁곳에	-11.5752
▁1.9%...	-11.5755
브	-11.5755
대들	-11.5757
▁독도의	-11.5758
분쟁	-11.5758
▁금품수수	-11.5759
▁둔	-11.576
보기	-11.5762
▁이강세	-11.5763
방법	-11.5767
안양	-11.5767
그루	-11.5768
▁법카	-11.5768
▁소방관들	-11.5769
수해	-11.5769
▁증권가	-11.5769
▁국가채무	-11.5771
▁키워드는	-11.5771
GO	-11.5772
▁장석	-11.5772
▁주목받는	-11.5773
▁159	-11.5773
중인	-11.5774
송구	-11.5774
젠	-11.5775
▁고발인	-11.5776
팬	-11.5777
▁서로	-11.5779
▁상황은	-11.578
▁이동재	-11.5781
▁도시철도	-11.5782
▁예산군	-11.5782
백화점	-11.5782
뒷북	-11.5783
뼈	-11.5784
백색	-11.5784
관련자	-11.5785
▁L	-11.5785
이용자	-11.5786
외환	-11.5786
고양서	-11.5788
▁종	-11.5788
핫이슈	-11.5789
기후위기	-11.5789
LNG	-11.5789
이스라엘	-11.579
활짝	-11.579
캠프마켓	-11.579
트위터	-11.579
새희망자금	-11.579
코트라	-11.579
리더십	-11.579
들썩	-11.5791
롯데온	-11.5791
항의	-11.5791
수출규제	-11.5791
낸드	-11.5792
높은	-11.5792
조작	-11.5792
직장인	-11.5793
▁노동개혁	-11.5793
탈당	-11.5794
▁재외공관	-11.5797
▁들어가	-11.5798
부패	-11.5798
▁청춘	-11.5799
▁한방	-11.5799
반중	-11.58
▁도정	-11.58
▁이커머스	-11.5803
와의	-11.5803
▁반출	-11.5803
적금	-11.5804
산간	-11.581
염	-11.5812
수상한	-11.5813
자원	-11.582
▁쓱데이	-11.5822
▁끌	-11.5826
▁반년	-11.5832
▁이달의	-11.5833
SW	-11.5833
지역경제	-11.5838
▁이영	-11.584
견	-11.5841
묵	-11.5841
▁불타	-11.5843
▁없다고	-11.5843
▁건강보험	-11.5852
▁개발한	-11.5853
시총	-11.5854
▁번다	-11.5855
▁못할	-11.5855
▁지역에	-11.5856
▁들은	-11.5856
▁순천서	-11.5858
자식	-11.586
▁괴롭힘	-11.5862
촉구	-11.5864
▁사건에	-11.5866
연합회	-11.5872
▁국감에서	-11.5873
▁넘을	-11.5878
▁바이든은	-11.5879
못해	-11.5882
▁시니어	-11.5885
DR	-11.5888
▁국감에	-11.5889
▁순차	-11.589
제가	-11.589
▁법개정	-11.5892
▁화두	-11.5894
▁연합	-11.5894
▁자동화	-11.5895
▁멤버	-11.5896
▁인형	-11.5898
▁만행	-11.5899
▁33%	-11.5899
▁예우	-11.5899
▁주자	-11.5903
▁래퍼	-11.5904
▁추석에	-11.5912
▁외교차관	-11.5914
▁전자	-11.5914
귀	-11.5915
▁삼성바이오에피스	-11.5916
김좌진	-11.5916
조오섭	-11.5916
▁결심공판	-11.5916
▁삼육대	-11.5916
▁통행	-11.5916
별내자이	-11.5916
동시다발	-11.5916
▁깨져	-11.5916
▁물리학상	-11.5916
▁정양석	-11.5916
▁손본다	-11.5916
▁숨긴	-11.5916
▁면해	-11.5917
▁이뤄야	-11.5917
▁무역협회	-11.5917
▁세워야	-11.5917
▁히로부미	-11.5918
▁질의응답	-11.5918
▁짖어도	-11.5918
▁빌미	-11.5918
주차장	-11.5919
▁대표발의	-11.5919
▁인준안	-11.592
▁동신대	-11.592
▁저해	-11.592
▁드러난	-11.592
▁이모저모	-11.5921
▁중경상	-11.5922
▁멈춰야	-11.5922
주고	-11.5923
▁부산관광공사	-11.5923
▁서해안고속도로	-11.5923
버섯	-11.5923
▁보낼	-11.5924
▁대납	-11.5924
▁1.5%	-11.5924
▁복권	-11.5925
▁김경율	-11.5925
▁터졌다	-11.5925
▁맞는다	-11.5925
▁인권위원장	-11.5925
▁공공지원	-11.5926
▁채용박람회	-11.5926
민주유공자	-11.5926
▁성공할까	-11.5926
▁사각	-11.5927
▁질병관리청	-11.5927
▁미쳐	-11.5927
▁펜로즈	-11.5927
▁이형석	-11.5927
▁선각자	-11.5928
▁구걸	-11.5928
▁여배우	-11.5928
▁뺀	-11.5928
▁영상통화	-11.5929
▁소나무	-11.5929
▁국제선	-11.5929
▁영업중단	-11.593
▁적용제외	-11.593
▁퇴장	-11.5931
▁콘테스트	-11.5931
▁야외예배	-11.5931
▁거센	-11.5931
▁자매	-11.5931
▁마약사범	-11.5931
지급	-11.5933
▁쇼케이스	-11.5934
▁마련하라	-11.5934
▁직속	-11.5935
▁레드	-11.5935
119	-11.5937
▁추구	-11.5937
▁베네수엘라	-11.5937
▁구인	-11.5937
▁디딤돌	-11.5937
▁골절	-11.594
▁丁	-11.5941
▁서부발전	-11.5941
▁양승동	-11.5942
▁성남시장	-11.5942
▁위문	-11.5943
▁조해진	-11.5943
▁재현	-11.5943
▁허리	-11.5944
▁당선되면	-11.5944
▁민변	-11.5944
조성	-11.5945
▁외무성	-11.5945
▁맞아야	-11.5945
...28	-11.5946
▁보자	-11.5946
▁시행령	-11.5947
▁두산중공업	-11.5947
▁임정혁	-11.5947
▁유명무실	-11.5948
▁미샤	-11.5948
▁속내는	-11.5948
▁역성장	-11.5949
▁되는데	-11.5949
콜	-11.5949
▁남미	-11.595
▁385	-11.595
▁온라인쇼핑	-11.5951
▁핵무기	-11.5951
▁합병증	-11.5952
▁영아	-11.5952
▁안할	-11.5952
▁스마트공장	-11.5953
▁남편과	-11.5955
▁주방	-11.5955
▁싱크탱크	-11.5955
▁멸종위기	-11.5955
▁충분히	-11.5955
입주	-11.5955
▁다채	-11.5955
▁산자부	-11.5957
부마민주항쟁	-11.5959
▁경미	-11.596
▁라이프스타일	-11.5961
▁낚시	-11.5962
▁실수로	-11.5963
제작	-11.5964
▁페트병	-11.5964
▁싹	-11.5965
더뉴스	-11.5968
▁아웃	-11.5969
▁열다	-11.597
▁골목상권	-11.5971
▁벗는	-11.5971
물류센터	-11.5971
▁딴	-11.5971
▁리제네론	-11.5974
▁우즈벡	-11.5974
과의	-11.5975
▁4.9%	-11.5975
▁기분	-11.5976
▁현대차증권	-11.5976
▁효율	-11.5977
▁창원시장	-11.5977
▁한발	-11.5979
▁휴일	-11.5979
▁나가는	-11.5981
▁꾸러미	-11.5981
▁중앙은행	-11.5982
▁규제지역	-11.5983
낙	-11.5985
수사팀	-11.5987
▁일하는	-11.5987
▁도의회	-11.5989
병상	-11.5992
▁호흡기	-11.5992
]10	-11.5993
▁홍성군	-11.5993
▁의정협의체	-11.5994
▁605	-11.5994
▁늑장	-11.5997
▁성큼	-11.5998
▁유가	-11.6
▁혼돈	-11.6001
▁지원센터	-11.6001
▁일방적	-11.6003
▁무엇	-11.6008
연맹	-11.6009
ce	-11.6009
▁연료	-11.601
▁정밀	-11.601
지역사회	-11.601
▁이용해	-11.6012
광장	-11.6014
노후	-11.6016
안동	-11.6017
▁무슬림	-11.6018
▁중상모략	-11.6019
▁토대	-11.6021
▁42%	-11.6022
실험	-11.6022
고창	-11.6022
er	-11.6025
한다더니	-11.6027
화물차	-11.6031
병든	-11.6032
▁호황	-11.6033
▁한국전	-11.6034
다급한	-11.6037
▁이기	-11.6038
우리은행	-11.604
거제	-11.604
빨간	-11.604
▁사범	-11.6041
석탄	-11.6041
줍줍	-11.6046
고령	-11.6047
▁교사들	-11.6049
누리꾼	-11.605
▁재사용	-11.605
발칵	-11.6051
기후변화	-11.6051
시끌	-11.6051
마이너스	-11.6052
엿새	-11.6052
항체	-11.6052
후끈	-11.6052
無	-11.6053
실효성	-11.6053
리츠	-11.6053
아름다운	-11.6053
멜라니아	-11.6053
의료계	-11.6053
이스타항공	-11.6053
▁여행지	-11.6053
유튜버	-11.6054
국제유가	-11.6054
상반기	-11.6056
▁195	-11.6056
국내외	-11.6057
▁경쟁자	-11.6058
동해안	-11.6059
전태일	-11.6059
당선	-11.606
정밀	-11.6062
▁시공	-11.6068
▁서학개미	-11.6069
스런	-11.607
들은	-11.6072
▁문경	-11.6074
58	-11.6078
▁골목	-11.608
▁사무	-11.6082
▁보궐	-11.6086
▁변명	-11.6086
▁경선준비위	-11.609
무리한	-11.6093
▁과장	-11.6093
▁했더니	-11.6096
장에	-11.6098
대학교	-11.6099
▁군산대	-11.6101
...27	-11.6101
▁164	-11.6107
악	-11.6109
▁라	-11.611
▁사직	-11.611
▁첩보	-11.6112
▁방글라데시	-11.6115
▁48%	-11.6116
대필	-11.612
▁청산	-11.6121
..."2	-11.6127
정신적	-11.6128
김영	-11.6128
▁요구한	-11.6129
▁결과는	-11.6129
인상	-11.6132
했다면	-11.6137
▁양해	-11.6139
▁김경	-11.6141
▁웃	-11.6142
900	-11.6143
▁86	-11.6144
▁실습	-11.6145
▁마시	-11.6146
경찰관	-11.6152
지도부	-11.6158
받던	-11.616
▁지원에	-11.6161
파크	-11.6162
▁인턴	-11.6162
▁숙제	-11.6163
▁추진에	-11.6166
▁벤처기업	-11.6166
▁폭주	-11.6167
▁치안	-11.6168
상상	-11.6172
+,	-11.6173
▁당진시	-11.6175
▁미룬	-11.6176
▁코엑스	-11.6177
기업들	-11.6178
▁끝낸	-11.6178
▁침몰	-11.6178
특별교부세	-11.6179
포포인츠	-11.6179
▁경기도주식회사	-11.6179
집중취재	-11.6179
▁지나쳐	-11.6179
▁관중	-11.618
코로나에도	-11.618
▁영덕군	-11.618
▁자치발전	-11.618
▁간편하게	-11.6181
▁이룬	-11.6181
특수	-11.6181
▁협력업체	-11.6181
▁부평역	-11.6181
▁울리는	-11.6181
▁28%	-11.6181
▁띄우기	-11.6181
▁외투	-11.6183
▁모은다	-11.6183
▁위니아딤채	-11.6184
▁자존심	-11.6184
▁쇄도	-11.6184
▁횡단보도	-11.6184
▁인증샷	-11.6184
▁명문대	-11.6185
▁현판	-11.6185
▁밝힌다	-11.6185
▁낸드사업	-11.6186
▁건양대	-11.6186
▁살렸다	-11.6188
▁역사왜곡	-11.6188
▁김포공항	-11.6188
▁보육	-11.6189
▁여러	-11.619
▁있어요	-11.619
▁BC	-11.619
▁섬유	-11.619
▁차려	-11.6191
▁이노션	-11.6191
▁무덤	-11.6191
▁정치판	-11.6191
▁집결	-11.6192
▁보인	-11.6192
▁상정	-11.6193
▁이민	-11.6193
▁모두발언	-11.6194
중계	-11.6194
▁지역사회보장협의체	-11.6194
▁JDC	-11.6194
▁쇼룸	-11.6195
▁수혈	-11.6196
혼자	-11.6197
▁쿼드	-11.6198
▁공실률	-11.6198
▁전주혜	-11.6198
▁서체	-11.6201
▁앵글	-11.6201
쇼핑몰	-11.6201
▁김용호	-11.6202
▁빼빼로	-11.6204
▁새마을금고	-11.6204
▁4900	-11.6205
▁1~2	-11.6205
▁높아진	-11.6206
▁북항	-11.6206
▁순회	-11.6206
▁한국관광공사	-11.6206
▁의심환자	-11.6208
행동	-11.6208
▁청약통장	-11.6209
▁매주	-11.6209
▁이언주	-11.6209
▁노숙인	-11.621
▁달린	-11.6211
▁걷는	-11.6211
▁후보로	-11.6212
▁살균	-11.6212
▁노벨화학상	-11.6215
▁멀티	-11.6216
악마의	-11.6216
▁1.8	-11.6217
▁면직	-11.6218
▁정치공세	-11.6218
▁수백억	-11.6219
▁생활용품	-11.6219
동원	-11.6221
▁0%	-11.6222
▁이강	-11.6225
▁태화강	-11.6225
▁점심	-11.6225
필	-11.6226
▁가와무라	-11.6228
▁끄	-11.6231
▁길거리	-11.6231
▁가상화폐	-11.6232
▁술자리	-11.6232
▁감사장	-11.6233
▁다주택	-11.6233
▁루이	-11.6235
▁급한	-11.6238
▁“4	-11.6238
▁CB	-11.6238
▁아쉽다	-11.6239
바람	-11.6239
소독	-11.624
▁동교동계	-11.6242
▁빼돌	-11.6243
지금이	-11.6243
▁무관용	-11.6245
▁사령관	-11.6245
▁심야배송	-11.6246
▁갯벌	-11.6247
▁남녘	-11.6247
자리	-11.6248
▁국채	-11.625
▁분통	-11.625
▁나와도	-11.6251
▁대응에	-11.6251
차전	-11.6251
▁소명	-11.6254
▁작업자	-11.6255
팔	-11.6255
▁시설물	-11.6256
▁고등학교	-11.6256
▁인공	-11.6257
▁334	-11.6258
▁사인은	-11.6258
경로	-11.6259
▁전라감영	-11.6259
▁투입해	-11.6261
▁21%	-11.6261
▁청년인턴	-11.6264
▁남의	-11.6264
퇴원	-11.6266
▁생애	-11.6266
▁끼	-11.6267
▁위협하는	-11.6267
▁이스타	-11.6268
소장	-11.6268
봉사	-11.6269
▁백년가게	-11.627
▁서지현	-11.627
▁입장차	-11.6272
인가구	-11.6273
▁안갯속	-11.6273
▁꿈틀	-11.6277
▁진도	-11.6279
▁증가에	-11.628
▁태우	-11.6281
▁양육	-11.6282
▁공문	-11.6286
▁중산층	-11.6287
한상혁	-11.6287
▁안한	-11.6287
▁패	-11.6288
부족	-11.6289
▁클러스터	-11.6291
한국어	-11.6292
▁초비상	-11.6292
▁돌아가	-11.6293
▁한중일	-11.6293
▁105	-11.6294
▁휘청	-11.6294
하이	-11.6295
진단키트	-11.6296
농업	-11.6298
보도	-11.6298
▁요즘	-11.6301
▁위성	-11.6305
▁아우디	-11.6307
▁전주서	-11.6309
불황형	-11.6311
헬스	-11.6314
핀셋	-11.6317
▁구도	-11.6317
수급	-11.6317
▁유신	-11.6317
쑥쑥	-11.6318
▁2.4	-11.6319
블록	-11.632
괴산	-11.6321
배추	-11.6321
비서관	-11.6321
귀성	-11.6321
▁체감	-11.6322
국가채무	-11.6322
임영웅	-11.6322
위크	-11.6322
인권침해	-11.6323
면역	-11.6323
메르켈	-11.6323
깜짝실적	-11.6323
부실수사	-11.6323
방탄소년단	-11.6323
셀트리온	-11.6323
김근식	-11.6324
배럿	-11.6324
▁등판	-11.6325
DMZ	-11.6326
이벤트	-11.6326
국민께	-11.6326
▁미술관	-11.6327
재판부	-11.6328
▁플레이	-11.6328
복지부	-11.6329
▁부정선거	-11.6331
공정거래법	-11.6333
신간	-11.6334
경위	-11.6335
▁당내	-11.6338
▁107	-11.6338
급여	-11.6341
전날	-11.6342
▁안다	-11.6343
한숨	-11.6343
남양주	-11.6346
▁아르메니아	-11.6347
창고	-11.6347
차박	-11.6351
▁태평양	-11.6351
의무	-11.6353
건축	-11.6355
▁제명	-11.6358
▁식당서	-11.6359
숨겨진	-11.636
행복한	-11.6363
▁받고도	-11.6363
할것	-11.6364
▁자랑스러	-11.6365
▁연휴에도	-11.6365
억에	-11.6366
▁하우스	-11.6367
..."3	-11.637
▁보여주	-11.6371
▁고사	-11.6371
해당	-11.6374
바이든은	-11.6376
임대	-11.6377
▁대목	-11.6379
▁해외서	-11.6381
▁재정적자	-11.6385
요원	-11.6388
▁GM	-11.6391
우성	-11.6394
▁대전대	-11.6395
~11	-11.6396
완주	-11.6396
이익	-11.6397
▁최고위	-11.6397
▁개업	-11.6399
선방	-11.6399
니스	-11.64
발끈	-11.64
▁올리는	-11.6401
▁'20	-11.6402
충북도	-11.6409
▁비만	-11.6415
▁담당자	-11.6415
▁합천	-11.6417
▁유인	-11.6418
▁아들의	-11.6418
?...‘	-11.6419
▁창녕	-11.6425
음주	-11.6426
▁한해	-11.6427
▁말리	-11.643
▁초등교사	-11.6432
▁전선	-11.6432
!”...	-11.6432
▁저가	-11.6433
일단	-11.6433
▁팔린	-11.6434
▁읽는	-11.6434
▁구치소	-11.6436
하려다	-11.6439
▁경영자	-11.6442
▁야산	-11.6443
▁둘러싼	-11.6444
▁띄운	-11.6445
개방	-11.6445
▁않나	-11.6448
▁주중대사	-11.6449
▁공군참모총장	-11.6449
▁국무조정실장	-11.6449
▁추기경	-11.6449
동네방네	-11.6449
중대재해기업처벌법	-11.6449
▁챙기세요	-11.6449
▁양현석	-11.6449
▁'5·18	-11.6449
▁어때요	-11.6449
▁만나보세요	-11.6449
▁감경	-11.645
▁혈장치료제	-11.645
▁지켜달라	-11.645
▁메카	-11.645
▁앞당긴다	-11.645
▁따르면	-11.645
▁아니었다	-11.6451
▁목원대	-11.6451
▁한밭대	-11.6451
▁마구	-11.6451
▁일반청약	-11.6452
만원으로	-11.6452
▁사저	-11.6452
▁보장하라	-11.6454
▁펼친다	-11.6454
▁강하게	-11.6454
▁대치	-11.6454
▁매일유업	-11.6454
▁박남춘	-11.6454
▁있나요	-11.6455
▁정상통화	-11.6455
▁기독교	-11.6456
▁결심	-11.6456
▁경과원	-11.6456
▁책임진다	-11.6456
▁모른다	-11.6457
▁64%	-11.6458
▁가천대	-11.6458
▁배준영	-11.6458
▁물씬	-11.6459
▁유리창	-11.6461
▁민주당에	-11.6461
▁행방불명	-11.6461
▁CFO	-11.6462
▁바우처	-11.6462
▁일본뇌염	-11.6462
▁알려	-11.6463
▁카타르	-11.6464
▁영하권	-11.6465
▁72%	-11.6465
▁이주	-11.6465
▁헝가리	-11.6465
▁텀블러	-11.6465
▁자사	-11.6466
▁일원화	-11.6466
▁합산	-11.6467
▁실행	-11.6467
숙여	-11.6467
▁김태호	-11.6468
너나	-11.6469
▁로켓	-11.6469
▁오를까	-11.6469
▁억만장자	-11.6469
▁영남대	-11.6469
▁안다르	-11.6469
▁선거사범	-11.6469
▁소독제	-11.647
▁위력	-11.647
▁건보료	-11.647
▁나흘만에	-11.647
▁향방은	-11.647
▁서신	-11.6471
▁포비아	-11.6472
▁고액체납자	-11.6473
▁박성중	-11.6473
▁PGA	-11.6474
케	-11.6474
▁유성구	-11.6475
▁퇴근	-11.6475
▁다저스	-11.6475
▁무서운	-11.6475
▁공영쇼핑	-11.6476
▁연기흡입	-11.6476
▁가처분	-11.6476
▁상주시	-11.6477
국가채무비율	-11.6478
▁독감예방접종	-11.6479
▁특허출원	-11.6479
▁청와대에	-11.648
복합	-11.648
▁베스트	-11.6482
▁위에	-11.6482
▁교황청	-11.6482
▁특성화고	-11.6482
▁셔틀버스	-11.6483
▁이륜차	-11.6483
▁소속사	-11.6483
▁복합기	-11.6483
▁여객선	-11.6483
▁기숙사	-11.6484
▁용적률	-11.6486
▁이도훈	-11.6486
▁페스타	-11.6486
▁소셜벤처	-11.6486
▁나간다	-11.6487
▁몸값	-11.6487
▁안중근	-11.6489
▁SR	-11.6489
▁히어로	-11.6489
▁하도급	-11.6489
▁경영난	-11.649
헌혈	-11.649
47	-11.649
▁음모론	-11.649
▁마포포럼	-11.6491
▁박스	-11.6491
▁호텔신라	-11.6492
▁플리스	-11.6493
▁반기	-11.6493
▁한창	-11.6494
자이	-11.6494
▁수소연료전지	-11.6496
▁롯데쇼핑	-11.6496
▁시리아	-11.6501
▁말한	-11.6502
▁것인가	-11.6504
▁대교	-11.6507
▁승부처	-11.6507
▁핑크뮬리	-11.6507
▁가습기살균제	-11.6507
▁실험실	-11.6508
▁건국대	-11.6511
▁중요성	-11.6512
▁배경은	-11.6512
▁장벽	-11.6512
▁기준치	-11.6512
신의	-11.6513
▁박상기	-11.6513
▁제철	-11.6514
격	-11.6514
▁친선	-11.6514
▁하나금투	-11.6514
▁1700	-11.6516
본인	-11.6519
백신과	-11.6519
▁구체적	-11.6521
▁러브콜	-11.6521
▁인건비	-11.6522
▁안되는	-11.6522
▁원자력	-11.6523
▁럭셔리	-11.6524
▁선동	-11.6526
▁졸속	-11.6526
▁JT	-11.6526
▁대책회의	-11.6529
▁88%	-11.6531
▁유기	-11.6533
▁신탁	-11.6542
▁여전한	-11.6542
▁미성년	-11.6544
▁가뭄	-11.6549
정읍	-11.655
▁해외로	-11.6551
'...3	-11.6553
▁민간임대	-11.6554
선정	-11.6557
▁AA	-11.6558
▁선배	-11.6558
피격공무원	-11.6564
사람이	-11.6564
▁연안	-11.6568
▁소상공인에	-11.6568
▁밀양시	-11.6571
페	-11.6571
▁장난	-11.6572
특구	-11.6576
조선학교	-11.6576
사법	-11.6579
▁공정거래법	-11.6579
▁반대한	-11.6581
엔터	-11.6583
추석맞이	-11.6585
좀	-11.6585
▁국민께	-11.6586
달째	-11.6587
대리점	-11.6589
단기	-11.6589
▁슈	-11.6591
빅스마일데이	-11.6592
터미널	-11.6593
선관위	-11.6594
▁다운	-11.6595
영화제	-11.6596
개가	-11.6597
주치의	-11.6597
김어준	-11.6598
요즘	-11.66
귀경	-11.66
상생협력	-11.66
구제역	-11.66
이성윤	-11.66
카카오게임즈	-11.66
이동재	-11.6601
김주하	-11.6601
순항	-11.6601
언제	-11.6601
엄격	-11.6601
중진공	-11.6602
홈플러스	-11.6602
정세균	-11.6602
믿고	-11.6602
서울시교육청	-11.6603
ITC	-11.6604
뉴노멀	-11.6604
공식	-11.6605
▁바이든이	-11.6608
수익률	-11.6608
우리말	-11.661
최우수상	-11.6611
지점	-11.6612
거래대금	-11.6613
▁당근마켓에	-11.6613
비난	-11.6616
▁"100	-11.6619
▁27%	-11.6621
보석	-11.6628
부인	-11.6629
▁뒷광고	-11.6629
유기농	-11.663
차원	-11.6632
▁동승자	-11.6633
▁학생에	-11.6633
▁싼	-11.6635
잠	-11.6636
▁시민의	-11.6637
법과	-11.6637
▁국민대	-11.6639
역할	-11.664
▁강경	-11.6647
▁기뻐하	-11.6652
▁프리랜서	-11.6654
시간여	-11.6655
▁호칭	-11.6659
▁맞춘	-11.6659
▁외침	-11.6662
사적	-11.6666
▁너	-11.6669
▁대책위	-11.667
▁에스	-11.6675
비자	-11.6677
▁즐기	-11.6679
▁뚫	-11.668
▁1.4	-11.6681
스토리	-11.6682
▁주가는	-11.6683
가정	-11.6684
▁수탁	-11.6689
기념	-11.6692
운전	-11.6694
정리	-11.6695
유치원	-11.6699
▁강북	-11.6701
▁본토	-11.6703
부지	-11.6707
▁스쿨존	-11.671
닝	-11.6712
▁당첨자	-11.6713
▁멈춰	-11.6713
▁피해자들	-11.6719
▁모멘텀	-11.672
당시	-11.672
▁청약에	-11.6721
▁부착	-11.6722
▁간부들	-11.6723
▁전북대병원	-11.6724
▁온도	-11.6724
토스	-11.6724
▁받아들여	-11.6726
녹색	-11.6726
▁들었다	-11.6726
▁환담	-11.6726
▁봤더니	-11.6727
▁드세요	-11.6727
▁월드클래스	-11.6727
▁중요한	-11.6727
표준임대료	-11.6727
▁귀감	-11.6728
▁상관없이	-11.6728
▁야행	-11.6728
▁상병	-11.6728
▁재구조화	-11.6729
루피	-11.6729
▁주인공	-11.673
us	-11.673
▁친권	-11.673
▁번지나	-11.6731
▁완수	-11.6731
▁격상	-11.6732
▁잘하세요	-11.6732
▁신종자본증권	-11.6732
▁카자흐스탄	-11.6732
▁킨텍스	-11.6732
▁전봇대	-11.6732
▁발걸음	-11.6732
▁NEW	-11.6733
▁말려질	-11.6733
▁촉발	-11.6733
▁롯데면세점	-11.6733
▁헌화	-11.6733
▁경기회복	-11.6734
▁전주대	-11.6734
▁오르고	-11.6735
▁숙원	-11.6735
▁서민정	-11.6735
▁중앙선관위	-11.6735
▁무너진	-11.6736
▁제조공장	-11.6736
▁이채익	-11.6736
유통업계	-11.6736
▁긴급지원	-11.6737
▁탈옥	-11.6737
▁의료진에	-11.6737
▁끝나자	-11.6738
너도나도	-11.6738
▁아토피	-11.6739
▁홍정	-11.674
▁분뇨	-11.674
▁핵심은	-11.674
▁옛말	-11.6742
▁김재	-11.6742
▁한시적	-11.6743
▁희망퇴직	-11.6743
▁승자	-11.6743
도마	-11.6744
▁먹은	-11.6744
▁1.3%	-11.6744
▁던지	-11.6744
▁뭐하나	-11.6744
▁영월	-11.6745
▁금지통고	-11.6747
▁교보생명	-11.6747
▁손소독제	-11.6747
▁개관식	-11.6747
▁이래진	-11.6748
▁음주사고	-11.6749
▁음모	-11.675
▁3,000	-11.675
▁SBA	-11.6751
▁상업용	-11.6751
▁이재정	-11.6751
▁이상한	-11.6752
▁사격	-11.6752
▁불공정거래	-11.6753
▁항암제	-11.6753
▁경제단체	-11.6755
▁맹추격	-11.6758
▁유동수	-11.6758
▁필로폰	-11.6758
▁산불감시원	-11.6758
▁손길	-11.6758
분류인력	-11.6759
▁초진	-11.6759
▁영업정지	-11.6761
인류	-11.6761
강도	-11.6761
박정천	-11.6761
..."10	-11.6762
▁92%	-11.6764
▁돌고래	-11.6765
▁노고	-11.6767
▁月	-11.6768
▁교복	-11.677
▁역사의	-11.6772
▁빅딜	-11.6772
▁판세	-11.6772
▁연휴기간	-11.6774
▁친인척	-11.6776
▁컴퓨터	-11.6776
▁수억	-11.6777
▁전국으로	-11.6777
▁밤새	-11.6779
▁정보기관	-11.6779
▁티볼리	-11.6779
▁만지작	-11.6779
▁날린	-11.678
▁수혜주	-11.6781
▁시국에	-11.6781
안해	-11.6781
군부대	-11.6781
▁접근성	-11.6783
▁로이터	-11.6783
▁한빛	-11.6787
▁한돈	-11.6788
▁역공	-11.6788
▁창간	-11.679
▁아티스트	-11.679
▁진정성	-11.6792
▁집으로	-11.6793
▁명시	-11.6793
▁태세	-11.6794
▁인권보고관	-11.6796
▁사망사건	-11.6796
▁오산	-11.6796
▁정통	-11.6799
▁실거주	-11.68
유지	-11.6804
지속	-11.6804
▁말했다	-11.6804
▁‘4	-11.6805
▁비해	-11.6809
산림	-11.6811
▁YG	-11.6811
▁전시관	-11.6813
▁시기상조	-11.6813
해고	-11.6814
▁언제든	-11.6816
대입	-11.6817
-2	-11.6817
▁신무기	-11.6817
▁135	-11.6818
저금리	-11.6818
가능	-11.682
▁여성운동	-11.682
▁수학	-11.6823
574	-11.6823
▁‘0’	-11.6825
▁저학년	-11.6827
▁세상을	-11.6828
▁슬	-11.6828
▁흐리다	-11.683
▁난개발	-11.6832
국립공원	-11.6836
▁깊이	-11.6836
▁미납	-11.6837
▁현재까지	-11.6839
혁	-11.684
슨	-11.6841
▁마블	-11.6842
▁문학상	-11.6842
▁김용균	-11.6843
▁홍보비	-11.6847
페스티벌	-11.6847
▁상승에	-11.6852
▁탐사	-11.6854
▁항로	-11.6854
온라인으로	-11.6856
▁합니다	-11.6857
▁달째	-11.6857
▁이수	-11.686
▁정책공모	-11.6863
보험금	-11.6864
▁'0'...	-11.6865
차별	-11.6871
▁테크	-11.6872
퇴근길	-11.6872
▁광주시의회	-11.6876
키스	-11.6877
라방	-11.6878
완쾌	-11.6878
▁양국	-11.6879
남동발전	-11.6879
심신미약	-11.6879
닛케이	-11.6879
▁저자	-11.6881
동영상	-11.6881
일내	-11.6882
양평	-11.6883
뜨거운	-11.6884
가덕신공항	-11.6885
성실히	-11.6885
해수욕장	-11.6886
비트코인	-11.6886
한달	-11.6886
가습기	-11.6886
감자	-11.6886
작심발언	-11.6886
증평	-11.6886
재건축	-11.6886
다나병원	-11.6887
민경욱	-11.6887
어려운	-11.6887
화환	-11.6888
▁확진에도	-11.6888
아이돌	-11.6888
SRC	-11.6888
승용차	-11.6889
초등생	-11.6889
민주화	-11.6889
엄지	-11.689
휴	-11.6891
외교관	-11.6891
▁사천	-11.6895
사생활	-11.6895
▁원유	-11.6896
교원	-11.6897
▁코로나백신	-11.6897
시행	-11.6899
카드사	-11.6899
▁월드	-11.6902
불안한	-11.6902
부부	-11.6903
▁김남	-11.6904
한샘	-11.6909
사이드	-11.6909
라임펀드	-11.6917
▁친서	-11.6917
▁내면	-11.6918
▁성공한	-11.6922
▁끊	-11.6924
▁감염에	-11.6927
고민	-11.6928
▁여행사	-11.693
심각한	-11.6932
▁(3	-11.6933
▁109	-11.6933
뉴스큐	-11.6934
잠자는	-11.6936
비중	-11.6937
특정	-11.6944
▁곰	-11.6945
▁사업비	-11.6946
▁업소	-11.6946
성적	-11.695
KF	-11.6951
일일	-11.6952
▁연구원	-11.6952
▁주체	-11.6953
민심	-11.696
▁넉달	-11.6963
▁좌천	-11.697
종이	-11.6972
▁실사	-11.6978
▁유통가	-11.6978
유명	-11.6979
▁지원할	-11.6982
사거리	-11.6983
[10	-11.6985
▁대연	-11.6987
정작	-11.699
▁실적에	-11.6992
▁선언한	-11.6993
▁현장접수	-11.6996
▁종말	-11.6997
전남도	-11.6997
▁도마에	-11.6998
▁바나나	-11.7001
▁정점	-11.7002
▁이끄	-11.701
▁중개	-11.7011
▁완성차	-11.7012
하자마자	-11.7012
껏	-11.7012
▁닮은	-11.7013
⋅	-11.7013
▁띄네	-11.7013
▁에이블씨엔씨	-11.7013
까치온	-11.7013
현대산업개발	-11.7013
취재파일	-11.7013
▁깨졌다	-11.7013
▁6.25	-11.7013
▁확인하는	-11.7013
청산리전투	-11.7013
강소기업대상	-11.7013
▁되찾아	-11.7013
▁기공식	-11.7013
▁평전	-11.7014
▁밝혀질	-11.7014
▁낫다	-11.7014
▁살펴보니	-11.7015
▁행정복지센터	-11.7015
▁지켜져야	-11.7015
▁최하위권	-11.7016
▁수밖에	-11.7016
▁게시물	-11.7016
오마이	-11.7016
▁분변	-11.7016
▁에게해	-11.7017
▁정책토론회	-11.7017
▁업고	-11.7017
▁하이엔드	-11.7018
▁우종창	-11.7018
▁참관	-11.7018
▁최고위원회의	-11.7018
▁합법화	-11.702
▁활로	-11.7021
▁정책간담회	-11.7021
낼	-11.7021
▁선관위원장	-11.7021
지검	-11.7021
▁벤처투자	-11.7021
▁올렸다	-11.7022
▁초극박	-11.7022
▁세종대왕릉	-11.7022
▁창녕군	-11.7022
▁동명대	-11.7022
▁조현준	-11.7022
▁싸우	-11.7023
▁뭐냐	-11.7024
▁제압	-11.7024
▁빗장	-11.7024
▁틈	-11.7024
▁알리기	-11.7024
▁체	-11.7026
▁앤디포스	-11.7026
▁제일풍경채	-11.7026
▁방호복	-11.7026
▁너머	-11.7026
▁무섭다	-11.7028
▁시작됐다	-11.7028
▁못받아	-11.7028
▁공원화	-11.7029
▁실력	-11.7029
▁염태영	-11.7029
▁설문조사	-11.703
▁현대기아차	-11.703
▁코리아센터	-11.7031
▁해양쓰레기	-11.7031
나이키	-11.7031
▁전북대병원장	-11.7031
황당한	-11.7032
▁증가폭	-11.7032
▁호랑이	-11.7033
▁공중급유기	-11.7033
▁파이팅	-11.7033
▁철도공단	-11.7034
▁의성군	-11.7034
▁기계	-11.7034
▁중단된	-11.7035
업자	-11.7036
▁체험단	-11.7036
▁추운	-11.7037
▁엘리베이터	-11.7037
▁매트리스	-11.7037
▁경연대회	-11.7037
▁김원웅	-11.7037
기아	-11.7037
▁짝사랑	-11.7037
▁쏟아지는	-11.7038
▁나들이객	-11.7039
▁만들고	-11.7039
▁이준석	-11.7039
▁무상교육	-11.7041
▁본질	-11.7042
▁광주시교육청	-11.7043
▁교촌	-11.7044
▁칸막이	-11.7044
▁조형물	-11.7044
▁장발장	-11.7045
▁스마트팩토리	-11.7046
▁분산	-11.7047
▁8.15	-11.7048
▁글로벌스탠더드경영대상	-11.7048
▁각각	-11.7048
월로	-11.7051
▁MBA	-11.7051
▁집계	-11.7055
나흘간	-11.7055
▁임은정	-11.7055
▁공격에	-11.7055
대만에	-11.7056
▁평창군	-11.7056
▁연극	-11.7057
▁이데일리	-11.7058
▁그래도	-11.7059
▁체온	-11.706
▁잡음	-11.706
▁대구점	-11.7062
▁의왕	-11.7062
▁음주운전자	-11.7063
▁중앙지검	-11.7063
▁강간	-11.7065
▁인제군	-11.7067
▁공영홈쇼핑	-11.7067
▁잠잠	-11.7067
▁개조	-11.7068
▁WP	-11.707
▁농작물	-11.707
▁공방전	-11.7071
▁나면	-11.7071
▁이른	-11.7071
묘	-11.7071
▁최저임금	-11.7072
▁산업용	-11.7076
자기	-11.7077
▁군공항	-11.7078
▁보톡스	-11.7078
▁계기로	-11.708
▁이통	-11.7082
순천	-11.7082
▁강화할	-11.7083
▁독일에	-11.7083
▁잡을	-11.7084
▁7500	-11.7084
▁가정에	-11.7086
▁인정받아	-11.7086
▁차로	-11.7087
해외여행	-11.7087
나노	-11.7091
▁420	-11.7095
▁재개방	-11.7096
▁기업공시	-11.7097
▁브라질서	-11.7097
MS	-11.7098
됐나	-11.7101
▁온라인서	-11.7103
▁객실	-11.7111
▁홍천군	-11.7111
▁금태섭에	-11.7112
▁알림	-11.7114
▁우유	-11.7115
▁-1.9%	-11.7119
▁꼬마	-11.7119
▁장례식	-11.712
▁보일러	-11.712
압박	-11.7121
▁용어	-11.7121
송도	-11.7122
▁춤	-11.7122
..."11	-11.7122
▁문화재청	-11.7124
▁모르	-11.7125
▁베트남에	-11.7127
▁검은	-11.7129
▁자해	-11.713
▁학술회의	-11.7132
확인	-11.7134
▁기념사	-11.7135
학자	-11.7135
▁국정감사에서	-11.7135
▁겪	-11.7136
제보자	-11.7138
▁억울	-11.7148
▁중국과	-11.7151
▁단양	-11.7152
프레시	-11.7153
활성화	-11.7153
▁장악	-11.7154
음악회	-11.7156
봐	-11.7156
▁DS	-11.7156
▁단일	-11.7158
▁낙관	-11.7158
▁드림	-11.7163
모아	-11.7164
▁모레	-11.7166
메디톡신	-11.7167
▁138	-11.7168
개는	-11.7169
평양	-11.7169
리조트	-11.717
반값	-11.7171
▁나를	-11.7173
블랙	-11.7173
판교	-11.7174
여기	-11.7176
토크	-11.7176
꿀꺽	-11.7177
호응	-11.7178
SOC	-11.7178
렌터카	-11.7179
휘청	-11.718
집행정지	-11.7181
자체	-11.7181
옥중서신	-11.7181
맑음	-11.7181
반려견	-11.7181
집합금지	-11.7181
IMF	-11.7181
재보선	-11.7181
진료	-11.7181
연예인	-11.7182
지난달	-11.7182
▁장병들	-11.7184
수영장	-11.7184
발열	-11.7184
▁부담금	-11.7186
분기별	-11.7186
▁약탈	-11.7188
▁교통안전	-11.7192
친문	-11.7193
중소	-11.7196
특검해야	-11.7196
▁세제	-11.7196
]2	-11.7197
▁저축	-11.7199
▁83%	-11.7201
고려대	-11.7202
비밀의	-11.7202
▁부모님	-11.7204
성공	-11.7206
기계	-11.7207
▁사실로	-11.7207
▁LGD	-11.7209
성장률	-11.721
▁못하면	-11.7211
▁신천지	-11.7214
휴대전화	-11.7214
원유	-11.7217
▁237	-11.7217
▁광명	-11.7219
▁물려	-11.7221
▁사법	-11.7222
세계적	-11.7224
인니	-11.7227
정부의	-11.7229
▁관찰	-11.7232
▁"12	-11.7233
▁류	-11.7233
▁강성	-11.7236
민주당이	-11.7238
개주	-11.724
플렉스	-11.724
▁끊이	-11.7244
▁가격에	-11.7247
▁심해	-11.7248
▁비서	-11.7255
▁상가건물	-11.7255
▁지속적	-11.7257
▁박완	-11.7257
▁추워	-11.7264
세부터	-11.7265
.9%↑	-11.7265
▁맑	-11.7268
▁춘천서	-11.7268
▁"8	-11.7271
청소년용	-11.7271
▁핫	-11.7272
나를	-11.7273
▁탈출한	-11.7274
▁거장	-11.7275
▁놔	-11.7276
·5	-11.7276
▁발달장애인	-11.7286
징용문제	-11.7291
▁탄탄	-11.7292
▁서산	-11.7293
본부장	-11.7297
▁빠지	-11.7298
▁대체복무요원	-11.7298
▁죽일	-11.7299
▁생각나	-11.73
▁옮기	-11.7302
▁묻는	-11.7303
▁맞벌이	-11.7304
▁늘린	-11.7304
▁고용노동부	-11.7306
▁133	-11.7306
▁휩싸	-11.7307
처음학교로	-11.7307
▁가창댐	-11.7307
▁남동공단	-11.7307
▁폐기물처리장	-11.7307
▁울려퍼진	-11.7307
▁전자랜드	-11.7307
▁알았는데	-11.7307
▁도모	-11.7307
▁일단락	-11.7308
▁아니야	-11.7308
▁자리매김	-11.7308
▁회기역	-11.7308
▁잠수사	-11.7308
▁정책에	-11.7308
▁중부고속도로	-11.7308
▁이인수	-11.7309
▁공갈미수	-11.7309
▁하와이	-11.7309
▁수료식	-11.7309
▁사전계약	-11.731
▁한병도	-11.731
▁돕겠다	-11.731
▁왜이래	-11.731
▁Report	-11.731
▁대피령	-11.731
▁마음대로	-11.7311
▁충당	-11.7312
▁유한킴벌리	-11.7313
▁일용직	-11.7313
▁주택금융공사	-11.7313
▁신한생명	-11.7313
▁구속기소	-11.7314
▁유관순	-11.7315
▁시제품	-11.7316
▁육군총장	-11.7316
공화	-11.7316
▁팩트체크	-11.7316
▁COVID	-11.7316
▁태어난	-11.7316
▁울주세계산악영화제	-11.7316
▁분수령	-11.7317
▁사이버공격	-11.7317
▁부결	-11.7317
▁주먹인사	-11.7317
▁추가기소	-11.7317
▁모시기	-11.7318
▁갈취	-11.7318
▁떠난다	-11.7318
▁재활	-11.7319
▁우회	-11.732
▁시대에	-11.732
▁삼부토건	-11.732
▁사외이사	-11.732
▁자필	-11.732
▁직거래	-11.7321
▁걸음	-11.7322
▁매칭	-11.7322
▁대출이자	-11.7322
강좌	-11.7322
▁감사보고서	-11.7323
▁개청	-11.7323
▁무상급식	-11.7323
▁웬	-11.7323
▁주둔	-11.7324
▁과기정통부	-11.7324
▁마세라티	-11.7324
▁블랙야크	-11.7324
▁권인숙	-11.7324
▁대기오염	-11.7324
▁투싼	-11.7324
▁건강관리	-11.7326
▁이상헌	-11.7326
▁FE	-11.7326
▁국표원	-11.7328
▁윤대희	-11.7328
▁에이즈	-11.7328
▁미리보기	-11.7328
▁집중포화	-11.7328
▁92	-11.7328
▁무제한	-11.7329
대구서	-11.7329
▁행적	-11.7329
▁합동감식	-11.7329
▁해결해야	-11.7329
▁철강업계	-11.7329
▁폐점	-11.733
▁불합격	-11.733
▁민선	-11.7331
▁밀고	-11.7331
▁키오스크	-11.7332
▁노골적	-11.7332
▁공영주차장	-11.7332
▁재계의	-11.7333
▁촉매	-11.7334
▁로고	-11.7335
불가	-11.7335
머	-11.7335
▁동료들	-11.7336
▁동계	-11.7337
▁관계사	-11.7337
▁박수영	-11.7337
▁부족한	-11.7337
▁볼보	-11.7338
▁독립운동가	-11.7338
▁쪼개기	-11.7339
▁예탁결제원	-11.7339
▁기상	-11.734
▁자율주행차	-11.734
▁지구촌	-11.734
▁방역에	-11.7341
▁한빛원전	-11.7341
▁층간소음	-11.7343
야당이	-11.7344
▁울고	-11.7345
▁겸	-11.7345
▁영동군	-11.7345
▁그날	-11.7345
▁아던	-11.7346
▁봐주기	-11.7346
▁청남대	-11.7347
▁유진투자증권	-11.7348
▁재단	-11.7348
▁손자	-11.7348
▁혁신의	-11.7349
콘	-11.7349
▁주목해야	-11.735
IB	-11.7352
▁성당	-11.7352
▁관세청장	-11.7354
▁문제점	-11.7355
▁회계법인	-11.7356
▁카드론	-11.7356
▁옥천	-11.7357
▁의료비	-11.7357
▁GV	-11.7358
▁의사들	-11.7358
71	-11.7359
▁체육관	-11.736
동문	-11.736
▁사립대	-11.7361
▁GH	-11.7362
▁사회서비스원	-11.7363
▁납득	-11.7366
한글날에도	-11.7367
대북	-11.7368
▁함정	-11.7368
▁오픈뱅킹	-11.7371
▁하나로마트	-11.7372
기업과	-11.7373
▁중장기	-11.7374
이라더니	-11.7374
▁호통	-11.7376
▁소신	-11.7376
▁식품업계	-11.7379
원대로	-11.7379
▁통로	-11.738
▁감동	-11.738
평가서	-11.738
▁주선	-11.7381
▁이사장에	-11.7382
▁나주시청	-11.7384
▁정화	-11.7385
▁블프	-11.7389
▁갑론을박	-11.7389
▁장외투쟁	-11.7389
▁사위	-11.739
겨	-11.7391
사형	-11.7391
▁190	-11.7392
▁합헌	-11.7393
▁회장단	-11.7394
▁가능성에	-11.7398
에어	-11.7398
▁도와	-11.7398
▁광화문역	-11.7399
▁분양시장	-11.74
▁영유아	-11.74
▁물대포	-11.7401
▁기밀	-11.7401
▁당분간	-11.7403
▁자치	-11.7404
상습	-11.7405
▁가성비	-11.7405
어진	-11.7407
벽	-11.7407
엑스포	-11.7409
▁태아	-11.741
극단	-11.7413
-3	-11.7416
▁뺨	-11.7416
▁학원가	-11.742
▁증평	-11.742
▁퍼	-11.7424
▁뜨는	-11.7424
결	-11.7425
▁정기국회	-11.7427
▁주민과	-11.743
▁제천시	-11.7431
▁음해	-11.7431
▁“2	-11.7432
룡	-11.7432
고문	-11.7433
▁잔액	-11.7433
예정	-11.7433
▁지내	-11.7436
▁반대에도	-11.7439
▁유서	-11.744
남자	-11.7443
매입	-11.7445
▁대선토론	-11.7446
▁지하철역	-11.7449
▁만지는	-11.745
국회의원	-11.745
▁발칵	-11.7452
▁검토중	-11.7454
황	-11.7457
시승기	-11.746
인의	-11.7464
사법농단	-11.7464
민의	-11.7466
년반	-11.7467
귀경객	-11.7468
▁정부지원	-11.7473
▁코로나블루	-11.7475
▁전부터	-11.7477
주거	-11.7477
▁구미대	-11.7478
웹툰	-11.7478
천안함	-11.7478
밴드	-11.7479
생존	-11.7479
굿	-11.748
계몽군주	-11.748
익산	-11.748
형평성	-11.748
통화	-11.7481
▁행보는	-11.7481
육아	-11.7481
전담	-11.7481
클러스터	-11.7482
잔액	-11.7482
윌슨	-11.7483
불량	-11.7483
유재수	-11.7483
에듀윌	-11.7484
블록체인	-11.7484
판문점	-11.7484
부작용	-11.7484
동남아	-11.7484
대형마트	-11.7485
최강욱	-11.7485
논문	-11.7485
▁정문	-11.7486
첫날	-11.7489
배출	-11.7489
서울교육청	-11.749
▁장마에	-11.7491
역사적	-11.7492
▁갈까	-11.7493
현대차그룹	-11.7493
이름	-11.7494
▁후보에	-11.7494
불안감	-11.7496
국방위	-11.7497
▁학교급식	-11.7498
법카	-11.75
▁소방서	-11.7501
먹는	-11.7502
▁과천시	-11.7502
전파	-11.7504
비수도권	-11.7505
타다	-11.7511
▁사이로	-11.7512
파주	-11.7513
365	-11.7513
▁한복판에	-11.7517
▁라운지	-11.752
위성	-11.7522
슬	-11.7524
OK	-11.7525
테	-11.753
▁염증	-11.7531
전통	-11.7532
▁집수리	-11.7534
▁블록딜	-11.7538
▁71%	-11.7543
▁노마스크	-11.7544
츠	-11.7545
▁영구	-11.7546
~10	-11.7555
거주	-11.7559
수용	-11.7562
▁허술	-11.7562
▁회장은	-11.757
상호	-11.7572
▁이중	-11.7575
▁코스	-11.7575
위험한	-11.7579
▁수호	-11.758
▁2800	-11.7581
·4	-11.7583
▁서울경찰청	-11.7583
▁논	-11.7587
▁신세	-11.7587
d	-11.7588
▁충원	-11.7588
▁바뀌	-11.7592
2024	-11.7593
일환	-11.7594
▁사자	-11.7595
▁노르웨이	-11.7596
▁만들었다	-11.7602
▁재활전문	-11.7603
포스트코로나	-11.7604
점차	-11.7605
트리	-11.7606
▁마이크	-11.7607
▁넓히	-11.7609
▁스토커	-11.761
▁아픔	-11.761
▁이튿날	-11.761
애꾸눈	-11.761
양화대교	-11.761
▁휘둘러	-11.761
▁점령	-11.761
▁김기덕	-11.761
▁자화상	-11.761
▁다녀간	-11.7611
▁공정거래위원장	-11.7611
▁태워	-11.7611
▁아르누보	-11.7611
▁서식	-11.7611
▁기다려	-11.7611
▁유혹	-11.7612
▁무단이탈	-11.7612
▁류석춘	-11.7612
▁인천경제청	-11.7612
▁건강기능식품	-11.7612
▁자매결연	-11.7612
권은희	-11.7612
▁자초	-11.7613
▁축산	-11.7614
▁바라본	-11.7614
▁결	-11.7615
▁떼라	-11.7615
▁메디헤어	-11.7616
▁습격	-11.7616
▁지하상가	-11.7616
▁부분파업	-11.7616
▁군사훈련	-11.7616
▁그린도시	-11.7617
▁잡힌	-11.7617
▁전남도의원	-11.7619
▁정약용	-11.762
▁뉴욕타임스	-11.762
▁반사이익	-11.762
▁Bln	-11.762
▁토크콘서트	-11.762
▁맞선	-11.762
▁이석희	-11.762
▁작동	-11.762
▁위스키	-11.762
▁공포감	-11.762
▁대단지	-11.7621
▁전염성	-11.7621
▁보건장관	-11.7621
▁인명피해	-11.7622
▁폐회	-11.7623
줬다	-11.7623
▁훨	-11.7624
▁무상증자	-11.7624
▁Covid	-11.7624
▁권영진	-11.7624
▁수요예측	-11.7624
▁돌아올	-11.7625
▁확실	-11.7625
▁긴급재난지원금	-11.7625
▁소행	-11.7626
▁금요일	-11.7627
▁임대아파트	-11.7627
▁야구	-11.7627
▁내포신도시	-11.7628
▁토지거래허가구역	-11.7628
▁정정	-11.7628
앞	-11.7628
▁CI	-11.7628
▁대형화재	-11.7628
▁이미경	-11.7628
▁늘어날	-11.7628
▁악재에도	-11.7631
▁LTE	-11.7631
▁샌드위치	-11.7631
▁남양주시장	-11.7632
▁톤	-11.7632
▁강자	-11.7633
▁지역일자리	-11.7633
▁배터리사업	-11.7633
▁시청률	-11.7633
▁기상청장	-11.7634
▁살린다	-11.7634
인방	-11.7634
▁피살사건	-11.7635
▁환영사	-11.7635
▁상속포기	-11.7636
▁늦게	-11.7637
▁미생물	-11.7637
▁공적	-11.7637
▁보합	-11.7638
▁선제검사	-11.7638
▁편중	-11.7638
▁본점	-11.7638
▁후반기	-11.7638
▁제주행	-11.7639
▁것이라고	-11.7639
▁열전	-11.7639
▁마오쩌둥	-11.7639
▁경제활동	-11.7639
▁허용해야	-11.7641
▁쌀쌀해진	-11.7642
▁엇박자	-11.7643
▁달걀	-11.7644
▁공동사업	-11.7645
▁카카오톡	-11.7645
▁구상권	-11.7646
▁동아	-11.7646
▁이번에는	-11.7647
▁부정평가	-11.7648
▁항균	-11.7648
▁국어	-11.7649
▁선박서	-11.765
▁미팅	-11.765
▁시작한	-11.765
▁개표	-11.7651
▁런던	-11.7651
▁준법감시위	-11.7651
▁인천항	-11.7651
▁밖에	-11.7654
도박	-11.7655
▁이상이	-11.7655
▁승합차	-11.7655
음료	-11.7655
▁리병철	-11.7655
▁간병인	-11.7657
▁계도	-11.7657
▁김장철	-11.7657
▁2~3	-11.7658
▁종자	-11.7659
▁노원	-11.7659
▁인허가	-11.7659
▁인종차별	-11.766
▁전송	-11.766
▁지주사	-11.7661
▁공공데이터	-11.7662
▁편의성	-11.7662
▁폭우	-11.7663
▁STX	-11.7663
볼까	-11.7664
▁수상태양광	-11.7665
▁곶감	-11.7667
▁진드기	-11.7667
▁눈덩이	-11.7667
존	-11.7668
주점	-11.7668
▁진화중	-11.7668
▁기소유예	-11.7669
▁숲길	-11.7669
▁편법	-11.7671
▁굳건	-11.7671
재고	-11.7671
▁290	-11.7672
▁검진	-11.7672
▁우리는	-11.7672
▁침략	-11.7672
▁공포에	-11.7672
▁맘	-11.7673
▁상생형	-11.7675
▁고용주	-11.7677
▁횡성	-11.7679
▁요기요	-11.7679
▁취한	-11.7681
▁[3	-11.7681
▁당첨금	-11.7681
서리	-11.7681
▁직구	-11.7682
놀이	-11.7682
서욱	-11.7682
▁파면	-11.7683
▁재생에너지	-11.7684
▁국군	-11.7685
▁마련할	-11.7686
▁중앙방역대책본부	-11.7687
▁각계	-11.7688
▁성주군	-11.7691
▁사법부	-11.7691
▁문화유산	-11.7692
▁해결사	-11.7696
▁강보합	-11.7696
컴퍼니	-11.7697
▁중복	-11.7697
▁친척	-11.7697
▁국고	-11.7698
실내	-11.7699
▁ITM	-11.7699
▁레	-11.77
▁대행	-11.77
▁실업자	-11.77
▁제주공항	-11.7702
▁사회복지	-11.7704
▁행사서	-11.7704
▁정규	-11.7705
▁SKY	-11.7706
▁잠수함	-11.7707
▁2,400	-11.7709
▁방식으로	-11.771
▁유로	-11.771
▁노려	-11.7711
▁GPS	-11.7711
▁이해충돌	-11.7712
재현	-11.7712
▁뒤집	-11.7712
▁안전망	-11.7715
’...‘	-11.7715
공급망	-11.7715
▁광주지역	-11.7715
▁방역조치	-11.7717
▁헬스장	-11.7718
▁해양수산부	-11.772
▁교육위	-11.7721
▁닥터	-11.7721
▁지원책	-11.7722
▁소음	-11.7723
▁이겨	-11.7724
▁주민등록	-11.7724
▁도난	-11.7725
▁선택은	-11.7726
▁부부에	-11.7727
▁성명서	-11.7729
▁빠르	-11.7731
▁모의	-11.7733
▁호남대	-11.7734
장마	-11.7736
융합	-11.7737
검은	-11.774
의심	-11.7741
▁송이	-11.7743
▁추가대책	-11.7744
▁쏘	-11.7746
▁맺	-11.7746
▁가덕신공항	-11.7747
▁됐나	-11.7749
▁구축함	-11.7755
똘마니	-11.7755
]3	-11.7757
▁상생협력	-11.7758
▁유통업체	-11.7758
변수	-11.7759
▁보은	-11.776
▁공산당	-11.7762
▁독재	-11.7762
▁마음으로	-11.7764
▁근거로	-11.7764
▁검토할	-11.7765
▁오브라이언	-11.7768
여론	-11.777
▁경향	-11.777
산불	-11.777
▁남영	-11.7772
▁승용차에	-11.7773
▁사건은	-11.7773
사채	-11.7773
▁기만	-11.7774
▁139	-11.7775
신중	-11.7776
▁기자들	-11.7779
합격	-11.7783
모집	-11.7784
▁적정	-11.7784
동두천	-11.7785
▁바른	-11.7785
ENG	-11.7788
템	-11.7788
현황	-11.7789
추캉스	-11.779
고맙다	-11.779
재택근무	-11.7791
신남방	-11.7792
사사건건	-11.7794
마블	-11.7795
중산층	-11.7795
기본권	-11.7795
선택적	-11.7795
영주댐	-11.7795
펑펑	-11.7795
전기요금	-11.7795
본격	-11.7796
오세훈	-11.7796
메디톡스	-11.7796
캐나다	-11.7797
리스크	-11.7797
정청래	-11.7797
SUV	-11.7797
박순철	-11.7797
태영호	-11.7797
이상반응	-11.7797
정무위	-11.7798
매몰	-11.7798
평대	-11.7798
▁세금으로	-11.7798
▁뛰는	-11.7799
흑인	-11.7799
▁이헌	-11.7799
갑천	-11.78
연평도	-11.78
협력사	-11.7802
제발	-11.7803
대구경북	-11.7806
임대차법	-11.7807
책임자	-11.7807
식물	-11.7808
▁트럼프는	-11.7811
임대료	-11.7811
북미	-11.7811
국민은행장	-11.7812
토지	-11.7819
라임사건	-11.7822
▁다섯	-11.7825
분주	-11.7825
춘	-11.7826
▁"6	-11.7827
▁공정한	-11.7827
▁마이	-11.7828
휴업	-11.7829
독감접종	-11.7829
▁연인	-11.783
▁치솟	-11.7832
배민	-11.7836
이색	-11.7839
▁주장은	-11.7839
수상	-11.7839
▁김병	-11.7841
▁연루설	-11.7845
생태계	-11.7846
효율	-11.7849
년뒤	-11.7849
▁"70	-11.7852
되길	-11.7852
▁미래는	-11.7853
6%↑	-11.7854
인사이트	-11.7854
▁기념일	-11.7856
장사	-11.7864
▁홈파티	-11.7868
으나	-11.7869
▁3600	-11.787
접촉	-11.7871
▁고령자	-11.7871
중형	-11.7872
▁최신종	-11.7874
▁혁신위	-11.7879
▁말이	-11.7879
사업비	-11.7882
▁256	-11.7886
▁법정에	-11.7887
만가구	-11.7887
▁58%	-11.7887
es	-11.7888
▁황금	-11.7888
▁경찰이	-11.7888
딘	-11.7889
▁꿈나무	-11.7889
곳으로	-11.789
협의	-11.7892
▁220	-11.7895
경제계	-11.7895
·3	-11.7901
▁받기	-11.7902
▁답답	-11.7908
▁먹이	-11.7911
▁사적	-11.7913
▁웃었다	-11.7914
한류	-11.7915
▁한국씨티은행	-11.7915
▁고소득	-11.7915
▁선별	-11.7916
회원	-11.7917
▁철학	-11.7918
▁염원	-11.7918
▁쌓인	-11.7918
원인은	-11.792
감일	-11.792
▁약보합	-11.7922
▁항공운항	-11.7922
▁대학병원장	-11.7922
▁football	-11.7922
KDN	-11.7922
OIL	-11.7922
▁랠리	-11.7922
▁뽑혀	-11.7922
형간염	-11.7922
▁Moon	-11.7922
▁신정훈	-11.7922
▁빛났다	-11.7922
▁둔갑	-11.7922
▁뚫린	-11.7922
▁숙식	-11.7923
디도스	-11.7923
▁국가보훈처장	-11.7923
민형배	-11.7923
▁빠졌다	-11.7923
▁배웅	-11.7924
▁줄이어	-11.7924
▁신상철	-11.7924
▁긴급사용승인	-11.7925
▁금투협	-11.7925
▁연수구	-11.7926
▁사다리차	-11.7927
▁버킷	-11.7927
▁조심하세요	-11.7928
김삼	-11.7928
▁네번째	-11.7928
▁올라온	-11.7928
▁“6·25	-11.7928
▁김진표	-11.7929
▁건설기술	-11.7929
▁삼성중공업	-11.7929
▁접전	-11.7929
마이	-11.793
▁살리는	-11.793
▁결성	-11.793
▁만연	-11.7931
▁도용	-11.7931
▁시뮬레이션	-11.7933
▁트레이더스	-11.7933
▁외환보유액	-11.7933
▁수소전기트럭	-11.7933
▁호출	-11.7933
▁12.3	-11.7933
▁교직원공제회	-11.7933
▁내리고	-11.7933
▁사과했어야	-11.7933
▁없음	-11.7933
▁지명자	-11.7934
▁쏠리는	-11.7934
▁물러나	-11.7934
▁무급휴직	-11.7934
바짝	-11.7934
▁교차	-11.7935
▁57%	-11.7935
▁줄여야	-11.7936
곰	-11.7936
▁칙령	-11.7937
▁검체채취	-11.7937
▁김포도시철도	-11.7937
▁방화살인범	-11.7937
▁도와달라	-11.7937
▁모녀	-11.7937
▁결속	-11.7938
▁주의해야	-11.7938
▁갈라	-11.7938
▁르노삼성차	-11.7939
빌	-11.794
▁독거노인	-11.7941
▁액화수소	-11.7941
▁봉투	-11.7941
▁회의록	-11.7941
▁부부싸움	-11.7941
▁잔	-11.7942
▁일어나	-11.7943
ary	-11.7943
▁일러	-11.7943
강제동원	-11.7944
▁변동	-11.7945
▁선거인단	-11.7945
▁한화큐셀	-11.7945
▁김종인에	-11.7945
▁밑그림	-11.7945
▁노트북	-11.7945
▁허점	-11.7945
논	-11.7946
▁재연	-11.7946
▁지하수	-11.7947
▁계정	-11.7947
▁딜레마	-11.7949
▁무방비	-11.7949
탕	-11.7949
▁붙잡	-11.7949
▁공개행사	-11.795
▁꽃길	-11.7952
▁무엇이	-11.7953
▁재난문자	-11.7953
▁생기	-11.7953
소환	-11.7954
▁박진영	-11.7954
▁반색	-11.7954
▁랩	-11.7955
▁차남	-11.7955
▁신혼	-11.7956
▁대외	-11.7956
▁평행선	-11.7957
▁소진	-11.7957
▁이재현	-11.7958
▁체포안	-11.7959
▁TS	-11.7959
▁치매환자	-11.796
▁132	-11.796
▁와디즈	-11.7961
▁마시고	-11.7961
▁품종	-11.7962
▁소진공	-11.7962
▁빨대	-11.7962
▁일자리사업	-11.7962
북구	-11.7964
▁호감도	-11.7964
▁일회용	-11.7965
▁속도내는	-11.7966
▁존재감	-11.7966
▁표본	-11.7967
▁독성	-11.7968
▁관문	-11.7969
▁피고인	-11.7969
▁뮤지엄	-11.7969
▁하이투자증권	-11.797
▁원도심	-11.7971
▁토양	-11.7972
▁심려	-11.7974
▁도피	-11.7976
▁카지노	-11.7977
▁블랙프라이데이	-11.7977
▁롯데월드타워	-11.7977
▁무안군	-11.798
▁배신	-11.7982
▁932	-11.7983
현실	-11.7983
▁피해야	-11.7986
▁일파만파	-11.7986
▁주거지	-11.7986
▁금속	-11.7987
수원시	-11.7987
이후	-11.7989
▁산소	-11.799
▁처벌법	-11.7993
▁제타	-11.7993
▁넘	-11.7993
▁차차	-11.7994
구간	-11.7994
▁이통사	-11.7994
▁아주	-11.7995
▁430	-11.7995
▁윤리위	-11.7997
▁세수	-11.7998
▁창업주	-11.7998
▁잰걸음	-11.8002
CC	-11.8005
수성	-11.8006
▁자진출석	-11.8009
▁친일파	-11.8009
▁전교생	-11.801
부분	-11.8011
55	-11.8012
▁509	-11.8016
이고	-11.8016
▁감기	-11.8017
▁기념관	-11.8018
직원들	-11.802
▁적극적	-11.802
▁이정	-11.8022
▁가족장으로	-11.8022
▁오리무중	-11.8027
▁감자빵	-11.8027
▁선사	-11.8029
▁골라	-11.8033
...200	-11.8034
▁아나필락시스	-11.8035
▁말도	-11.8038
▁언어	-11.804
▁수백만	-11.8041
TS	-11.8044
▁스마트폰으로	-11.8047
→5	-11.8049
▁수강	-11.8052
고소	-11.8054
군포	-11.8057
▁전매	-11.8058
▁못하고	-11.8059
▁건물주	-11.806
▁생활고	-11.8062
▁퇴근길	-11.8066
심의	-11.8066
저녁	-11.8068
증세	-11.8073
▁가족들	-11.8074
원도	-11.8075
▁금융사고	-11.8076
법에	-11.8077
라며	-11.8079
▁석달	-11.8079
▁67%	-11.808
▁의도적	-11.8081
▁좌	-11.8081
공구	-11.8081
▁IB	-11.8082
법대로	-11.8085
집주인	-11.809
철저	-11.8093
▁클린	-11.8093
지속가능	-11.8095
▁청도	-11.8096
▁망언	-11.8096
압류	-11.8097
분노	-11.8097
만원짜리	-11.8097
귀촌	-11.8099
철새	-11.81
일평균	-11.8101
후배	-11.8104
탓	-11.8109
▁세계로	-11.811
▁피운	-11.8112
적자폭	-11.8113
몸캠	-11.8113
48	-11.8114
윙	-11.8114
도시재생	-11.8116
학술회의	-11.8116
지속가능경영	-11.8116
엄정	-11.8116
위안화	-11.8117
印	-11.8117
이래	-11.8117
무슬림	-11.8118
금품수수	-11.8118
경기부양	-11.8118
노출	-11.8118
▁되자	-11.8118
릴레이	-11.8119
▁SAT	-11.8119
자금조달계획서	-11.8119
의식불명	-11.8119
숨통	-11.8119
교황	-11.8119
공인중개사	-11.8119
우리동네	-11.812
고령화	-11.812
재응시	-11.812
국제사회	-11.812
평소	-11.812
법무장관	-11.812
무기징역	-11.8121
노벨상	-11.8122
개인정보	-11.8122
▁소화기	-11.8122
▁두배	-11.8123
통일부	-11.8123
부진	-11.8124
OLED	-11.8125
바이	-11.8125
추정	-11.8125
울상	-11.8129
초비상	-11.8129
글라스	-11.813
열린	-11.8132
▁순매수에	-11.8132
을왕	-11.8137
▁자극	-11.8138
흥	-11.8139
공격	-11.814
과기부	-11.8146
년래	-11.8146
▁신도	-11.8149
가야	-11.8151
▁진상조사	-11.8153
▁조합원	-11.8154
▁충북대	-11.8156
불편한	-11.8156
▁찾을	-11.8161
▁생일파티	-11.8162
대변인	-11.8171
하남	-11.8172
▁허창	-11.8173
세종시	-11.8174
▁413	-11.818
▁신안군	-11.8181
받을	-11.8183
▁달인	-11.8189
▁이력	-11.819
▁유령	-11.819
▁수천	-11.8191
▁중증환자	-11.8192
▁파기환송	-11.8193
lu	-11.8196
▁56%	-11.82
충전소	-11.8203
대통령은	-11.8203
필요한	-11.8205
▁절망	-11.8206
▁늪	-11.821
2030	-11.8214
▁성역	-11.8215
▁환	-11.8218
4%	-11.822
▁접경지역	-11.8224
▁빛나	-11.8224
▁응급실	-11.8226
기지	-11.8228
▁조언	-11.823
▁깜짝실적	-11.823
▁고기	-11.8231
▁여고생	-11.8232
해법	-11.8235
▁책임은	-11.8235
▁시민과	-11.8236
▁167	-11.8236
▁성황	-11.8237
대덕	-11.8239
▁생긴	-11.8241
▁맡겨	-11.8241
▁금통위	-11.8241
▁준비돼	-11.8242
▁심마니	-11.8243
▁권익	-11.8243
이달의	-11.8244
OTC	-11.8244
늦어도	-11.8244
▁벌어진	-11.8244
_	-11.8245
숀	-11.8245
▁아닙니다	-11.8245
▁키르기스	-11.8245
來	-11.8245
연륙교	-11.8245
녹십자엠에스	-11.8245
마침내	-11.8245
▁범죄인인도	-11.8245
▁개인파산	-11.8245
▁봉행	-11.8245
위협	-11.8245
▁틈타	-11.8245
▁경록	-11.8245
▁끊긴	-11.8245
▁직행	-11.8245
▁열리나	-11.8246
▁남극	-11.8246
▁스타일러	-11.8246
▁이겼다	-11.8246
▁탕진	-11.8247
▁착취	-11.8247
▁컬래버	-11.8247
▁팜한농	-11.8247
▁머릿돌	-11.8247
▁뿌린	-11.8247
▁현장시찰	-11.8247
▁챙기기	-11.8247
▁87%	-11.8248
▁미래에셋자산운용	-11.8248
▁착취물	-11.8248
▁영진전문대	-11.8248
▁연제구	-11.8248
▁양성판정	-11.8248
▁조직위원장	-11.8248
▁김경재	-11.8248
▁디저트	-11.8249
해놓고	-11.8249
근무	-11.8249
▁김회재	-11.825
▁상봉점	-11.8251
▁두산밥캣	-11.8251
▁APEC	-11.8251
▁생겨	-11.8251
▁깃발	-11.8252
시쯤	-11.8252
에너지솔루션	-11.8252
▁특성	-11.8253
▁강한승	-11.8253
▁잇는다	-11.8254
▁구절초	-11.8255
▁신용보증기금	-11.8255
▁숫자	-11.8255
▁프로세스	-11.8256
▁원천차단	-11.8256
▁어린이보호구역	-11.8256
▁물꼬	-11.8256
▁뭔가	-11.8256
▁동부건설	-11.8256
▁이동량	-11.8256
▁전과자	-11.8257
▁괜찮아	-11.8257
▁앞당겨	-11.8257
▁조정훈	-11.8258
▁나플라	-11.8258
▁금물	-11.8259
▁강원도의회	-11.8259
▁입국제한	-11.8259
▁세탁	-11.8259
▁440	-11.826
▁환경단체	-11.826
▁의무보유	-11.826
▁대장정	-11.826
▁롯데케미칼	-11.8261
▁최저기온	-11.8261
▁호	-11.8262
▁선포식	-11.8264
으니	-11.8264
▁마드리드	-11.8264
▁강행군	-11.8264
▁크리스탈지노믹스	-11.8264
▁규제자유특구	-11.8264
▁백일장	-11.8264
▁당원	-11.8264
▁음원	-11.8265
수학	-11.8265
▁쓰겠다	-11.8265
▁불합리하	-11.8266
▁전문점	-11.8266
▁4050	-11.8267
▁팔린다	-11.8267
▁메르세데스	-11.8268
▁진매트릭스	-11.8268
▁놀라운	-11.8269
무역	-11.827
▁이득	-11.827
▁의정부시장	-11.827
▁신중해야	-11.8271
중학교	-11.8271
▁학술상	-11.8271
▁운명은	-11.8271
▁직위	-11.8272
▁신원식	-11.8272
▁기간제	-11.8273
▁필름	-11.8273
▁철판	-11.8273
▁기술개발	-11.8273
▁천재교육	-11.8273
▁부정채용	-11.8273
▁선도하는	-11.8274
▁저수지	-11.8274
중동	-11.8275
▁2,000	-11.8276
독서경영	-11.8276
▁서버	-11.8276
▁그린리모델링	-11.8277
▁일군	-11.8278
▁강등	-11.8279
▁보상해야	-11.828
설계	-11.8281
▁업무협약식	-11.8281
▁중소벤처기업부	-11.8281
▁클럽들	-11.8282
▁체감경기	-11.8284
▁티켓	-11.8284
▁굳히기	-11.8284
-35	-11.8284
▁리베이트	-11.8285
▁실거래가	-11.8286
▁임종	-11.8286
▁소원	-11.8287
▁시진핑에	-11.8287
▁평생교육	-11.8287
▁부사관	-11.8289
▁메인	-11.829
→2	-11.8292
▁불꽃	-11.8293
▁불빛	-11.8294
▁성수기	-11.8294
▁성묘	-11.8295
임직원	-11.8296
기가	-11.8296
▁어록	-11.8297
보라	-11.8297
▁기침	-11.8297
▁용납	-11.8297
▁푹	-11.8298
인줄	-11.8298
▁인앱결제	-11.8298
▁학교에	-11.8299
수석	-11.83
▁사업부문	-11.83
▁수확기	-11.83
▁사기단	-11.8301
▁전남대병원	-11.8301
▁다중이용시설	-11.8302
▁어두	-11.8303
▁대비해야	-11.8303
▁제가	-11.8305
▁호소에도	-11.8305
▁마을버스	-11.8306
▁고려인	-11.8306
▁임대인	-11.8306
▁자격증	-11.8307
▁파월	-11.8307
▁몸에	-11.8307
▁집착	-11.8308
▁이달부터	-11.8308
▁하다	-11.8311
▁첨단기술	-11.8312
▁식	-11.8313
▁고용안정지원금	-11.8313
▁도전장	-11.8315
▁로건	-11.8315
문학상	-11.8315
▁오르	-11.8315
▁13~18	-11.8316
▁수억원	-11.8316
전달	-11.8317
▁신분	-11.8317
지연	-11.8318
▁대리운전	-11.8318
▁정직	-11.8318
▁언급에	-11.8319
▁한남더힐	-11.8319
▁토로	-11.8319
강의	-11.8319
▁다양성	-11.8319
▁외국어	-11.832
▁알레르기	-11.832
al	-11.8323
▁불통	-11.8325
th	-11.8325
▁브렉시트	-11.8327
▁WFP	-11.8327
▁호우	-11.8328
▁국가비	-11.8329
공익	-11.8332
▁방역관리	-11.8332
▁미비	-11.8332
▁임차인	-11.8335
▁휴	-11.8335
▁청렴도	-11.8339
대전시	-11.834
▁진동	-11.834
▁집회신고	-11.834
▁콕	-11.8341
▁사람은	-11.8342
▁공룡	-11.8344
▁아픈	-11.8346
▁셀	-11.8347
▁이대로	-11.8347
전월	-11.8347
타워	-11.8348
인정	-11.8349
▁감염된	-11.835
출범	-11.8354
체적	-11.8356
▁버거	-11.8357
▁풍선효과	-11.8357
▁청양	-11.8358
▁극우	-11.836
곳뿐	-11.8362
▁JP	-11.8364
▁117	-11.8365
▁불행	-11.8365
받는다	-11.8366
올림픽	-11.8366
▁국공립	-11.8367
>“	-11.8369
빠진	-11.8369
▁생활가전	-11.837
▁중국군	-11.837
▁예상보다	-11.8371
▁내집	-11.8372
동행	-11.8372
▁印	-11.8374
▁권역	-11.8375
▁고령화	-11.8377
→3	-11.838
1%↑	-11.8381
▁수은	-11.8381
”...“	-11.8381
▁여성이	-11.8382
쿠폰	-11.8383
생각	-11.8385
청주시	-11.8388
▁리조트	-11.8388
▁되	-11.8389
▁인도에	-11.8392
감소	-11.8395
▁철	-11.8395
▁가능할	-11.8399
▁센	-11.84
▁31%	-11.8401
▁비서관	-11.8402
▁청년층	-11.8402
▁노인의	-11.8404
▁관리비	-11.8404
린다고	-11.8404
비만	-11.8404
파업	-11.8405
▁시끌	-11.8405
진흥원	-11.8406
UP	-11.8407
협동조합	-11.8412
최태원	-11.8414
▁미시간	-11.8414
▁사라지는	-11.8415
약자	-11.8417
▁사회적경제	-11.8421
▁차이나	-11.8423
딱	-11.8423
짐	-11.8426
▁상금	-11.8427
▁해이	-11.8432
▁성행	-11.8432
물로	-11.8433
▁납품업체	-11.8434
회수	-11.8434
추모	-11.8434
▁on	-11.8435
춤	-11.8439
해결	-11.8439
참사	-11.844
팜	-11.8441
장모	-11.8442
닭	-11.8445
닥터	-11.8446
150	-11.8446
매각	-11.8447
초등학교	-11.8447
남부지검장	-11.8447
탈석탄	-11.8448
증거인멸	-11.8448
선진국	-11.8449
포레나	-11.8449
노동관계법	-11.845
파티	-11.845
공짜	-11.845
알림	-11.845
ESS	-11.845
맥주	-11.845
합병	-11.845
경비	-11.8451
롤러블	-11.8451
갤러리	-11.8451
보복	-11.8451
김용균	-11.8451
쉬운	-11.8451
타이핑	-11.8451
기자회견	-11.8451
네티즌	-11.8452
욕설	-11.8452
이혁진	-11.8452
쾌유	-11.8452
▁뛰	-11.8452
수험생	-11.8452
국경절	-11.8452
HUG	-11.8452
박범계	-11.8453
병역특례	-11.8453
으	-11.8453
가계대출	-11.8453
얼마나	-11.8453
입원환자	-11.8453
기침	-11.8454
운행	-11.8455
▁288	-11.8455
▁것도	-11.8457
▁민사	-11.8457
▁피로	-11.8459
▁커질	-11.846
▁주요국	-11.8466
▁종일	-11.8468
예고	-11.8469
▁법무	-11.847
이부진	-11.8471
코로나블루	-11.8471
?[	-11.8473
▁울먹	-11.8474
▁金	-11.8474
비상장	-11.8476
▁지원해야	-11.8476
려다	-11.8476
▁불사	-11.8479
▁홍대	-11.8479
법관	-11.8483
하동	-11.8485
▁밖에서	-11.8486
실수	-11.8488
33	-11.8491
▁초고	-11.8491
▁감옥	-11.8491
유사	-11.8492
▁넘기	-11.8495
지분	-11.8496
PM	-11.8497
범위	-11.8497
챙기는	-11.8502
▁논란에도	-11.8503
▁세계에	-11.8507
▁색	-11.8507
중국에	-11.8512
▁영상으로	-11.8512
강한	-11.8514
▁의제	-11.8516
▁모바일로	-11.8517
▁비하	-11.852
중구	-11.8521
▁360	-11.8521
...2025	-11.8522
윤석열이	-11.8526
▁식수	-11.8527
애도	-11.8528
▁욕	-11.8528
▁151	-11.8531
▁추석에도	-11.8533
▁위원들	-11.8536
손해보험	-11.8537
▁시민에	-11.8538
▁조종사	-11.8538
▁자유로	-11.8539
성급	-11.854
▁부안	-11.8543
~"	-11.8544
▁149	-11.8545
▁훌륭	-11.8546
폐기	-11.855
▁원자력연	-11.8551
간편식	-11.8552
▁LIN	-11.8554
▁한식	-11.8554
46	-11.8555
항로	-11.8555
청장	-11.856
김장	-11.856
▁내년에	-11.8567
▁소매	-11.8568
▁서울에서	-11.8569
▁도마위	-11.8571
유진	-11.8571
▁수요일	-11.8572
▁쌓는	-11.8574
▁다룬	-11.8575
▁전공	-11.8576
▁존치	-11.8576
▁기쁨	-11.8578
▁배웠다	-11.8578
▁싫다	-11.8578
▁오남읍	-11.8578
▁우미건설	-11.8578
토트넘	-11.8578
▁수보회의	-11.8578
▁잊었나	-11.8578
▁화요일	-11.8578
탁현민	-11.8578
▁장영수	-11.8578
▁맞잡길	-11.8578
▁대전하나시티즌	-11.8578
▁이용한	-11.8579
▁포스코인터내셔널	-11.8579
▁주택담보대출	-11.8579
▁수력발전소	-11.8579
▁상호협력	-11.8579
▁중부발전	-11.8579
▁잡혔다	-11.8579
▁잃었다	-11.858
▁김정수	-11.858
▁없게	-11.858
▁투망	-11.858
▁간염	-11.8581
▁순천향대	-11.8581
▁안민석	-11.8581
▁한국수력원자력	-11.8581
▁틀렸다	-11.8581
▁경북도지사	-11.8581
▁주요일정	-11.8581
▁알려주는	-11.8582
▁한화시스템	-11.8582
▁묻는다	-11.8582
▁피했다	-11.8583
▁양성과정	-11.8583
▁아니고	-11.8583
▁재외동포	-11.8583
▁뿌려	-11.8585
▁붕앙	-11.8585
▁탬파베이	-11.8585
▁동거	-11.8585
▁만났지만	-11.8585
▁조용	-11.8585
▁만나겠다	-11.8586
▁김창성	-11.8586
▁구리시장	-11.8586
시간제	-11.8587
▁앉아	-11.8587
서해사건	-11.8587
▁구했다	-11.8587
▁정책자금	-11.8587
▁대체복무제	-11.8587
▁도로교통공단	-11.8589
▁버추얼	-11.8589
▁탐앤탐스	-11.8589
▁직무대행	-11.8589
▁장수	-11.8589
▁재집권	-11.8589
▁대기오염물질	-11.859
▁잔류	-11.859
▁입시학원	-11.859
▁이래진씨	-11.859
▁한국야쿠르트	-11.859
▁무학	-11.859
▁대청호	-11.859
▁김포시의회	-11.859
▁재검토해야	-11.8591
▁이룰	-11.8592
▁한국해양대	-11.8592
▁문화행사	-11.8593
▁라스베이거스	-11.8593
▁유한양행	-11.8593
▁아르헨티나	-11.8593
▁BHC	-11.8594
▁밀크티	-11.8594
▁자궁	-11.8594
▁계약갱신청구권	-11.8594
▁황희석	-11.8595
▁발열체크	-11.8595
▁출입증	-11.8595
▁매도세	-11.8596
▁햇살	-11.8596
▁계명대	-11.8596
▁도쿄증시	-11.8597
▁박대출	-11.8597
▁흡연	-11.8597
▁외제차	-11.8598
▁착각	-11.8598
▁폐플라스틱	-11.8598
▁현장경영	-11.8598
▁김성원	-11.8598
한때	-11.86
▁실정	-11.86
▁막오른	-11.8602
▁인접	-11.8602
▁잠재력	-11.8602
▁국가안보보좌관	-11.8603
▁거침없	-11.8603
▁데이터센터	-11.8603
했다가	-11.8605
구매	-11.8605
▁마주	-11.8606
수정	-11.8606
인하	-11.8606
▁방사청	-11.8606
▁여수광양항만공사	-11.8607
▁골프존	-11.8607
▁긴밀	-11.8607
남구	-11.8607
안전사고	-11.8608
▁선행	-11.8608
▁강남점	-11.8609
▁타살	-11.8609
▁사정	-11.8609
▁양상	-11.8609
개입	-11.8609
▁부정사용	-11.8609
▁탄핵	-11.861
▁유증	-11.8611
산지	-11.8611
▁옥중편지	-11.8611
▁제비뽑기	-11.8612
▁수급자	-11.8612
▁여행객	-11.8612
맥	-11.8612
▁메카로	-11.8613
▁사재기	-11.8613
수산물	-11.8615
▁마약류	-11.8616
▁고가사다리차	-11.8616
▁움직이	-11.8616
▁만나다	-11.8616
▁캔	-11.8616
▁사수	-11.8617
▁잔여	-11.8618
▁성향	-11.8618
▁홍보영상	-11.8619
32	-11.862
▁앤	-11.862
▁하차	-11.862
▁티저	-11.8621
▁산발	-11.8621
키코	-11.8622
▁코트	-11.8622
▁목표치	-11.8622
▁반기문	-11.8622
▁나의	-11.8622
▁관광공사	-11.8623
▁쏘카	-11.8624
▁최우수기관	-11.8627
▁교장	-11.8628
▁쌍끌이	-11.8628
▁훌쩍	-11.8628
▁입상	-11.8628
▁나랏빚	-11.8628
▁형사처벌	-11.863
▁지혜	-11.863
▁편안	-11.863
▁편향	-11.8631
대리	-11.8632
▁혁신기술	-11.8633
▁웨이브파크	-11.8633
▁시한폭탄	-11.8633
▁독감주사	-11.8633
사망과	-11.8634
▁에코	-11.8635
금융사기	-11.8635
▁희석	-11.8636
▁술렁	-11.8637
▁배스킨라빈스	-11.8637
▁홧김에	-11.8637
법률	-11.8637
▁중고생	-11.8638
▁LX	-11.8639
▁탈취	-11.8641
▁농장서	-11.8642
▁주사기	-11.8643
▁생일	-11.8643
고위험	-11.8645
국민은	-11.8646
▁종합병원	-11.8646
▁바이든과	-11.8647
▁총살	-11.8648
▁모형	-11.8648
▁거주지	-11.8649
▁줄인	-11.865
▁대응해야	-11.8651
기적의	-11.8652
▁유독	-11.8654
▁파출소	-11.8655
상권	-11.8655
▁앉	-11.8655
어디	-11.8655
▁주식투자	-11.8657
지정	-11.8661
▁카드형	-11.8662
▁165	-11.8662
해군	-11.8664
▁없	-11.8664
▁자국	-11.8667
▁공화	-11.8668
▁대답	-11.8668
▁수액	-11.8669
▁북핵	-11.867
주거용	-11.867
장터	-11.867
선택	-11.8672
▁적기	-11.8672
▁450	-11.8673
백여	-11.8675
▁메디	-11.8677
▁나쁜	-11.8677
우리도	-11.8677
▁투자자들	-11.8681
▁지시에	-11.8683
▁대담	-11.8683
▁직원도	-11.8686
▁후회	-11.8686
장학재단	-11.8686
▁원생	-11.8688
▁라디오	-11.869
▁융자	-11.8694
▁국민카드	-11.8698
▁공주대	-11.8698
▁통신사	-11.8699
청구	-11.87
▁프랑스인	-11.8701
▁'11	-11.8702
▁하원	-11.8702
전시관	-11.8704
▁음주측정	-11.8706
주변	-11.8707
블	-11.8709
▁전문기업	-11.8709
▁참여한	-11.8712
만원까지	-11.8713
서구	-11.8715
훈장	-11.8716
시세	-11.8718
말라	-11.872
유출	-11.8721
3%	-11.8721
▁152	-11.8722
▁공공의료	-11.8726
경험	-11.8727
▁세차	-11.8728
과연	-11.8728
..."5	-11.8728
▁일환	-11.8729
▁수요자	-11.873
▁발언은	-11.8732
편의	-11.8734
▁2.8	-11.8734
▁몰랐	-11.8734
▁의대생들	-11.8734
▁202	-11.8736
상품권	-11.8738
▁금주	-11.8739
견책	-11.874
중국의	-11.8741
정지	-11.8741
예의	-11.8742
유해	-11.8743
방한용품	-11.8744
▁관련성	-11.8744
펜	-11.8745
▁풍력	-11.8745
▁이토	-11.8747
▁8.6	-11.8751
▁늦어	-11.8751
뱅크	-11.8756
폭행해	-11.8759
▁공관	-11.8762
▁재료	-11.8762
▁"2030	-11.8763
키워드	-11.8763
▁전두환에	-11.8764
편히	-11.8767
▁교차로	-11.8769
▁변협	-11.8771
타고	-11.8771
▁수는	-11.8771
▁s	-11.8773
화이트리스트	-11.8773
▁서서	-11.8774
▁34%	-11.8775
명박산성	-11.8779
엘	-11.8781
방역의	-11.8782
▁유럽증시	-11.8783
▁남한	-11.8783
군대	-11.8784
카톡	-11.8784
냈다	-11.8784
골목	-11.8784
쌍	-11.8786
재정수지	-11.8787
高	-11.8788
깡	-11.8788
▁영서	-11.8789
충청	-11.879
해상풍력	-11.8791
제공	-11.8792
소모적	-11.8792
재난지원금	-11.8793
관세청	-11.8793
통계청	-11.8794
농약	-11.8794
영등포	-11.8795
잠실	-11.8795
보일러	-11.8795
꿈틀	-11.8796
증거	-11.8796
필수	-11.8796
테스트	-11.8796
입국금지	-11.8796
출근	-11.8797
DNA	-11.8797
언어	-11.8797
예탁원	-11.8797
앤트그룹	-11.8797
흑자전환	-11.8797
피의자	-11.8797
김홍걸	-11.8798
비즈니스	-11.8798
오피스텔	-11.8798
SSG	-11.8798
굴착기	-11.8798
시정연설	-11.8798
깊이	-11.8798
외출	-11.8799
표절	-11.8799
귀경길	-11.8799
업무보고	-11.8799
법인카드	-11.8799
아니다	-11.8799
야구	-11.88
난개발	-11.8801
작심	-11.8802
딜	-11.8803
II	-11.8803
수칙	-11.881
감면	-11.8813
▁끌어	-11.8814
▁국회에	-11.8814
몰린	-11.8814
북한산	-11.8815
▁성별	-11.8816
심리	-11.8819
태웅	-11.882
김현	-11.8822
▁대부	-11.8822
▁학교폭력	-11.8823
▁셰프	-11.8824
습니다	-11.8825
▁사항	-11.8825
▁대전환	-11.8826
▁멈추	-11.8827
▁버텨	-11.8828
남녀	-11.8828
NBC	-11.8829
▁트	-11.8831
▁북적이	-11.8831
징계는	-11.8832
▁대금	-11.8832
용어	-11.8836
▁뉴시스	-11.8839
▁거리로	-11.8843
▁들어가는	-11.8846
박차	-11.8848
▁재등장	-11.8849
내년도	-11.8851
이강세	-11.8858
▁강화에	-11.8858
▁어린이들	-11.8861
▁73%	-11.8862
▁뽑아	-11.8866
국회서	-11.8867
▁빌린	-11.887
▁동의대	-11.887
▁관료	-11.8871
▁리그	-11.8871
가입	-11.8873
▁견인차	-11.8874
인천시	-11.8874
▁운명	-11.8875
양육비	-11.8877
▁덮	-11.888
▁공익	-11.8881
▁안동서	-11.8882
▁폭발적	-11.8884
도운	-11.8885
▁방사선	-11.8886
▁디지털혁신	-11.8891
▁떼	-11.8891
▁허락	-11.8893
▁구례	-11.8896
치료용	-11.8898
▁도구	-11.89
CT	-11.8902
▁[[	-11.8904
판사	-11.8904
▁방위	-11.8909
▁연준	-11.891
▁투표로	-11.8911
년차	-11.8911
동부	-11.8913
▁사주	-11.8914
-10	-11.8917
▁구경	-11.8917
▁구금	-11.8919
▁7.5	-11.8919
였나	-11.8921
▁청양군	-11.8922
▁지키라	-11.8923
▁Corp	-11.8923
▁기폭제	-11.8923
▁잦은	-11.8923
브로드밴드	-11.8923
▁청미천	-11.8923
호반써밋	-11.8923
▁굳혀	-11.8923
▁일동제약	-11.8923
▁“5·18	-11.8923
▁뭉쳤다	-11.8923
▁밑돌아	-11.8923
▁살리자	-11.8923
▁한울원전	-11.8923
▁함유	-11.8923
▁숨겼다	-11.8923
▁올릭스	-11.8924
▁VIK	-11.8924
민식이법	-11.8924
진석	-11.8924
▁막아달라	-11.8924
▁풍자	-11.8924
성소수자	-11.8924
▁서거	-11.8924
▁이긴다	-11.8924
▁석탄화력발전	-11.8925
▁쏟아내	-11.8925
실록	-11.8925
▁롯데칠성	-11.8925
▁태양전지	-11.8926
▁지상	-11.8926
▁동률	-11.8926
▁되찾	-11.8926
▁선긋기	-11.8926
트론	-11.8926
▁숨지고	-11.8926
▁중간보고회	-11.8927
▁올리고	-11.8927
▁추모행사	-11.8928
▁550	-11.8928
▁써라	-11.8928
취	-11.8929
▁절단	-11.8929
▁텐트	-11.893
올인	-11.8932
▁성수동	-11.8932
▁연천군	-11.8933
▁콘셉트	-11.8934
▁필라델피아	-11.8934
▁플래그십	-11.8934
▁여대생	-11.8934
▁구자근	-11.8934
▁대다수	-11.8935
▁세종대왕	-11.8935
▁조문행렬	-11.8935
▁유언장	-11.8935
▁의령군	-11.8935
귀한	-11.8935
▁복구현장	-11.8935
▁LPG	-11.8937
특이점	-11.8938
▁불청객	-11.8939
▁존슨앤드존슨	-11.8939
▁배재대	-11.8939
▁행복해요양원	-11.8939
▁수뇌부	-11.8939
▁골머리	-11.8939
원화	-11.8939
인시위	-11.8941
▁복직	-11.8942
▁합동점검	-11.8943
▁수갑	-11.8943
▁초접전	-11.8944
▁재외동포재단	-11.8944
▁지역난방공사	-11.8944
▁국토교통부	-11.8944
▁CMA	-11.8944
▁목요일	-11.8945
▁은행나무	-11.8945
▁사업협력	-11.8946
▁동두천시	-11.8946
▁들통	-11.8946
5.18	-11.8946
▁규제완화	-11.8946
▁장흥군	-11.8946
▁공작	-11.8946
▁달랑	-11.8947
▁노력해야	-11.8947
▁구청은	-11.8948
▁후쿠오카	-11.8948
▁스퀘어	-11.8948
▁담양	-11.8949
▁요소	-11.8949
▁업무정지	-11.8949
▁노조위원장	-11.895
▁총장후보	-11.895
▁문화도시	-11.8951
▁개인전	-11.8951
▁필요한지	-11.8951
▁간섭	-11.8952
▁배춧값	-11.8952
▁타운홀	-11.8952
▁염려	-11.8952
▁주례	-11.8954
▁원조	-11.8954
▁228	-11.8955
▁몰린다	-11.8956
▁단호히	-11.8956
▁주도권	-11.8957
▁이방카	-11.8957
PB	-11.8957
배상	-11.8958
▁영덕	-11.8958
▁판매자	-11.896
▁전남도의회	-11.896
▁구례군	-11.896
▁개회사	-11.8961
▁소임	-11.8961
▁합작	-11.8961
▁효력	-11.8961
▁3040	-11.8961
▁일회용품	-11.8962
▁시공사	-11.8962
▁실업	-11.8963
▁농협금융	-11.8963
▁시초가	-11.8963
▁보낸다	-11.8963
공모전	-11.8965
고심	-11.8966
▁새마을부녀회	-11.8966
▁생필품	-11.8966
▁ETRI	-11.8966
▁날벼락	-11.8966
▁떨어진다	-11.8966
▁접	-11.8968
▁취업률	-11.8968
▁장관이	-11.8969
▁발상	-11.897
▁중학생들	-11.8971
▁대리기사	-11.8971
지고	-11.8972
▁13%↑	-11.8972
당신	-11.8974
▁프로포폴	-11.8975
▁꼼짝마	-11.8975
막힌	-11.8976
▁유지해야	-11.8977
▁각자	-11.8979
AA	-11.8979
▁생전	-11.8979
▁출처	-11.898
▁오차범위	-11.898
▁제일기획	-11.898
▁건전성	-11.898
▁교과서	-11.8983
공주	-11.8985
하네	-11.8985
▁전과	-11.8986
▁사설	-11.8986
▁면역력	-11.8986
▁한채	-11.8987
▁라임사태	-11.8988
▁투명성	-11.8989
▁리뷰	-11.8989
▁잠룡들	-11.899
▁한복판	-11.8997
플랜트	-11.8999
▁마통	-11.9003
▁우수자	-11.9005
▁삼성화재	-11.9006
▁가맹점과	-11.9006
▁무분별	-11.9007
▁백운규	-11.9007
▁쓰나미	-11.9008
▁김진	-11.901
▁만한	-11.901
▁외식업계	-11.901
큐	-11.9011
▁연동	-11.9011
▁양당	-11.9012
여년	-11.9015
노스	-11.9018
▁핸드	-11.9018
▁별이	-11.9019
▁내린다	-11.9019
고시	-11.9021
▁죽이	-11.9022
명당	-11.9023
▁미국인들	-11.9024
▁찾자	-11.9025
▁청량리역	-11.9026
▁라운드	-11.9027
▁대구은행장	-11.9027
▁힘들	-11.9029
▁177	-11.9033
▁살고	-11.9033
▁당연한	-11.9037
▁가공	-11.9039
영서	-11.9039
▁시장서	-11.904
▁기저질환	-11.904
▁재원	-11.9041
▁재기	-11.9042
▁실장	-11.9044
▁용	-11.9044
▁연령	-11.9045
용역	-11.9048
▁장편소설	-11.9048
▁플랜트	-11.905
▁IM	-11.9052
▁여건	-11.9053
▁청년창업	-11.9053
▁양육비	-11.9055
▁탄소배출	-11.9055
...31	-11.9055
세트	-11.9057
▁호서대	-11.9061
개년	-11.9062
▁경제위기	-11.9062
▁이재민에	-11.9062
▁내사	-11.9063
▁원에	-11.9064
▁법관	-11.9066
▁캐	-11.9067
▁270	-11.9069
▁유기동물	-11.9069
▁교	-11.9073
▁배후수요	-11.9074
!...	-11.9074
▁문학	-11.9075
했을	-11.9076
스트	-11.9077
▁반짝	-11.9078
▁찾겠다	-11.9078
▁부린	-11.9078
통영	-11.9081
친화도시	-11.9085
▁61%	-11.9089
▁수사중	-11.9091
▁억울한	-11.9092
그들	-11.9092
사랑상품권	-11.9094
▁연설에	-11.9097
야외	-11.9098
DT	-11.9098
▁부실수사	-11.9099
소신	-11.9105
사범	-11.911
▁건네	-11.9111
▁수천명	-11.9111
일지	-11.9112
소년	-11.9112
▁최영	-11.9113
유가족	-11.9116
▁자세	-11.9117
<	-11.9117
▁예고에	-11.9117
대통령님	-11.9117
집행률	-11.9121
택한	-11.9121
금고	-11.9122
해상	-11.9122
칩	-11.9123
행장	-11.9124
▁전일	-11.9126
숨은	-11.9136
.4%↓	-11.9136
여성운동	-11.9136
큰손	-11.9136
처음	-11.9137
골프모임	-11.9138
라스	-11.9139
몰라베	-11.914
언박싱	-11.914
연료	-11.9142
▁반응은	-11.9143
엄중	-11.9143
정대협	-11.9144
고기	-11.9145
딴	-11.9146
휘	-11.9146
필리핀	-11.9148
미성년	-11.9149
지도자	-11.9149
이베스트	-11.9149
자본금	-11.915
먹튀	-11.9151
이례적	-11.9151
공략	-11.9151
새벽배송	-11.9151
송구스럽다	-11.9151
패널	-11.9152
장편소설	-11.9152
아나필락시스	-11.9152
형님	-11.9153
안갯속	-11.9153
국정원	-11.9153
어워즈	-11.9154
어느	-11.9154
스위스	-11.9154
블랙핑크	-11.9154
넷마블	-11.9154
폭언	-11.9154
퇴직연금	-11.9154
현대글로비스	-11.9155
꼭	-11.9155
도시락	-11.9155
문재앙	-11.9155
무더기	-11.9155
취임	-11.9155
감축	-11.9155
[...]
